{
  "merges": [
    [
      "t",
      "h"
    ],
    [
      "o",
      "u"
    ],
    [
      "e",
      "r"
    ],
    [
      "i",
      "n"
    ],
    [
      "a",
      "n"
    ],
    [
      "th",
      "e"
    ],
    [
      "o",
      "r"
    ],
    [
      "i",
      "s"
    ],
    [
      "e",
      "n"
    ],
    [
      "a",
      "r"
    ],
    [
      "a",
      "t"
    ],
    [
      "o",
      "n"
    ],
    [
      "s",
      "t"
    ],
    [
      "l",
      "l"
    ],
    [
      "m",
      "e"
    ],
    [
      "t",
      "o"
    ],
    [
      "an",
      "d"
    ],
    [
      "h",
      "e"
    ],
    [
      "y",
      "ou"
    ],
    [
      "e",
      "s"
    ],
    [
      "n",
      "o"
    ],
    [
      "s",
      "e"
    ],
    [
      "h",
      "a"
    ],
    [
      "r",
      "e"
    ],
    [
      "o",
      "f"
    ],
    [
      "v",
      "e"
    ],
    [
      "i",
      "t"
    ],
    [
      "in",
      "g"
    ],
    [
      "b",
      "e"
    ],
    [
      "l",
      "e"
    ],
    [
      "w",
      "i"
    ],
    [
      "m",
      "y"
    ],
    [
      "h",
      "i"
    ],
    [
      "o",
      "w"
    ],
    [
      "c",
      "e"
    ],
    [
      "f",
      "or"
    ],
    [
      "a",
      "y"
    ],
    [
      "a",
      "s"
    ],
    [
      "c",
      "h"
    ],
    [
      "n",
      "d"
    ],
    [
      "er",
      "e"
    ],
    [
      "l",
      "d"
    ],
    [
      "i",
      "r"
    ],
    [
      "e",
      "d"
    ],
    [
      "u",
      "t"
    ],
    [
      "r",
      "o"
    ],
    [
      "no",
      "t"
    ],
    [
      "l",
      "i"
    ],
    [
      "d",
      "e"
    ],
    [
      "w",
      "e"
    ],
    [
      "h",
      "at"
    ],
    [
      "th",
      "at"
    ],
    [
      "g",
      "h"
    ],
    [
      "A",
      "nd"
    ],
    [
      "k",
      "e"
    ],
    [
      "o",
      "o"
    ],
    [
      "ou",
      "r"
    ],
    [
      "wi",
      "th"
    ],
    [
      "o",
      "me"
    ],
    [
      "en",
      "t"
    ],
    [
      "h",
      "is"
    ],
    [
      "r",
      "i"
    ],
    [
      "you",
      "r"
    ],
    [
      "th",
      "ou"
    ],
    [
      "th",
      "er"
    ],
    [
      "a",
      "d"
    ],
    [
      "a",
      "l"
    ],
    [
      "e",
      "t"
    ],
    [
      "a",
      "ll"
    ],
    [
      "gh",
      "t"
    ],
    [
      "E",
      "N"
    ],
    [
      "u",
      "r"
    ],
    [
      "u",
      "s"
    ],
    [
      "ha",
      "ve"
    ],
    [
      "hi",
      "m"
    ],
    [
      "I",
      "N"
    ],
    [
      "l",
      "y"
    ],
    [
      "s",
      "o"
    ],
    [
      "r",
      "a"
    ],
    [
      "th",
      "is"
    ],
    [
      "I",
      "O"
    ],
    [
      "or",
      "d"
    ],
    [
      "d",
      "o"
    ],
    [
      "u",
      "n"
    ],
    [
      "h",
      "o"
    ],
    [
      "m",
      "a"
    ],
    [
      "es",
      "s"
    ],
    [
      "p",
      "e"
    ],
    [
      "f",
      "e"
    ],
    [
      "A",
      "R"
    ],
    [
      "ou",
      "ld"
    ],
    [
      "ar",
      "e"
    ],
    [
      "l",
      "o"
    ],
    [
      "h",
      "ere"
    ],
    [
      "oo",
      "d"
    ],
    [
      "i",
      "d"
    ],
    [
      "th",
      "y"
    ],
    [
      "v",
      "er"
    ],
    [
      "f",
      "a"
    ],
    [
      "c",
      "k"
    ],
    [
      "on",
      "e"
    ],
    [
      "m",
      "an"
    ],
    [
      "t",
      "i"
    ],
    [
      "no",
      "w"
    ],
    [
      "T",
      "he"
    ],
    [
      "s",
      "ha"
    ],
    [
      "a",
      "m"
    ],
    [
      "wi",
      "ll"
    ],
    [
      "n",
      "e"
    ],
    [
      "g",
      "e"
    ],
    [
      "a",
      "in"
    ],
    [
      "b",
      "ut"
    ],
    [
      "s",
      "u"
    ],
    [
      "ar",
      "d"
    ],
    [
      "h",
      "er"
    ],
    [
      "U",
      "S"
    ],
    [
      "t",
      "er"
    ],
    [
      "c",
      "on"
    ],
    [
      "p",
      "r"
    ],
    [
      "T",
      "h"
    ],
    [
      "T",
      "o"
    ],
    [
      "en",
      "d"
    ],
    [
      "b",
      "y"
    ],
    [
      "the",
      "e"
    ],
    [
      "u",
      "e"
    ],
    [
      "o",
      "m"
    ],
    [
      "l",
      "a"
    ],
    [
      "sha",
      "ll"
    ],
    [
      "ar",
      "t"
    ],
    [
      "m",
      "or"
    ],
    [
      "u",
      "p"
    ],
    [
      "U",
      "C"
    ],
    [
      "s",
      "h"
    ],
    [
      "c",
      "ome"
    ],
    [
      "p",
      "o"
    ],
    [
      "IN",
      "G"
    ],
    [
      "ro",
      "m"
    ],
    [
      "ow",
      "n"
    ],
    [
      "A",
      "N"
    ],
    [
      "u",
      "st"
    ],
    [
      "t",
      "a"
    ],
    [
      "T",
      "hat"
    ],
    [
      "t",
      "r"
    ],
    [
      "w",
      "hat"
    ],
    [
      "E",
      "R"
    ],
    [
      "O",
      "R"
    ],
    [
      "ou",
      "s"
    ],
    [
      "m",
      "o"
    ],
    [
      "se",
      "l"
    ],
    [
      "E",
      "T"
    ],
    [
      "t",
      "e"
    ],
    [
      "E",
      "S"
    ],
    [
      "g",
      "o"
    ],
    [
      "g",
      "ood"
    ],
    [
      "i",
      "f"
    ],
    [
      "i",
      "ll"
    ],
    [
      "B",
      "ut"
    ],
    [
      "in",
      "e"
    ],
    [
      "a",
      "th"
    ],
    [
      "h",
      "en"
    ],
    [
      "b",
      "le"
    ],
    [
      "i",
      "ght"
    ],
    [
      "l",
      "ord"
    ],
    [
      "hi",
      "ch"
    ],
    [
      "i",
      "on"
    ],
    [
      "k",
      "ing"
    ],
    [
      "W",
      "hat"
    ],
    [
      "w",
      "as"
    ],
    [
      "b",
      "o"
    ],
    [
      "i",
      "l"
    ],
    [
      "an",
      "t"
    ],
    [
      "v",
      "en"
    ],
    [
      "K",
      "ING"
    ],
    [
      "s",
      "he"
    ],
    [
      "c",
      "a"
    ],
    [
      "u",
      "l"
    ],
    [
      "f",
      "rom"
    ],
    [
      "on",
      "g"
    ],
    [
      "b",
      "l"
    ],
    [
      "mor",
      "e"
    ],
    [
      "F",
      "or"
    ],
    [
      "we",
      "ll"
    ],
    [
      "the",
      "m"
    ],
    [
      "s",
      "a"
    ],
    [
      "I",
      "C"
    ],
    [
      "a",
      "k"
    ],
    [
      "s",
      "ir"
    ],
    [
      "sel",
      "f"
    ],
    [
      "in",
      "d"
    ],
    [
      "w",
      "ould"
    ],
    [
      "th",
      "ere"
    ],
    [
      "w",
      "or"
    ],
    [
      "lo",
      "ve"
    ],
    [
      "k",
      "now"
    ],
    [
      "p",
      "er"
    ],
    [
      "c",
      "an"
    ],
    [
      "c",
      "t"
    ],
    [
      "ou",
      "t"
    ],
    [
      "i",
      "ve"
    ],
    [
      "L",
      "O"
    ],
    [
      "at",
      "e"
    ],
    [
      "c",
      "om"
    ],
    [
      "s",
      "ay"
    ],
    [
      "the",
      "n"
    ],
    [
      "se",
      "e"
    ],
    [
      "le",
      "t"
    ],
    [
      "I",
      "US"
    ],
    [
      "AR",
      "D"
    ],
    [
      "the",
      "ir"
    ],
    [
      "d",
      "i"
    ],
    [
      "M",
      "y"
    ],
    [
      "th",
      "an"
    ],
    [
      "c",
      "i"
    ],
    [
      "r",
      "y"
    ],
    [
      "the",
      "y"
    ],
    [
      "for",
      "e"
    ],
    [
      "en",
      "ce"
    ],
    [
      "a",
      "g"
    ],
    [
      "e",
      "p"
    ],
    [
      "li",
      "ke"
    ],
    [
      "e",
      "ar"
    ],
    [
      "s",
      "pe"
    ],
    [
      "G",
      "o"
    ],
    [
      "er",
      "s"
    ],
    [
      "h",
      "y"
    ],
    [
      "m",
      "ay"
    ],
    [
      "E",
      "L"
    ],
    [
      "w",
      "ere"
    ],
    [
      "u",
      "m"
    ],
    [
      "b",
      "ro"
    ],
    [
      "w",
      "ay"
    ],
    [
      "p",
      "ro"
    ],
    [
      "A",
      "s"
    ],
    [
      "a",
      "st"
    ],
    [
      "W",
      "e"
    ],
    [
      "v",
      "es"
    ],
    [
      "is",
      "h"
    ],
    [
      "in",
      "k"
    ],
    [
      "ti",
      "me"
    ],
    [
      "K",
      "E"
    ],
    [
      "ha",
      "th"
    ],
    [
      "I",
      "I"
    ],
    [
      "q",
      "u"
    ],
    [
      "ir",
      "st"
    ],
    [
      "N",
      "o"
    ],
    [
      "u",
      "re"
    ],
    [
      "H",
      "e"
    ],
    [
      "ma",
      "ke"
    ],
    [
      "o",
      "l"
    ],
    [
      "p",
      "le"
    ],
    [
      "Y",
      "ou"
    ],
    [
      "w",
      "ho"
    ],
    [
      "th",
      "ing"
    ],
    [
      "r",
      "ow"
    ],
    [
      "m",
      "ust"
    ],
    [
      "g",
      "ra"
    ],
    [
      "ou",
      "nd"
    ],
    [
      "i",
      "th"
    ],
    [
      "a",
      "p"
    ],
    [
      "a",
      "ve"
    ],
    [
      "s",
      "ome"
    ],
    [
      "oo",
      "k"
    ],
    [
      "sh",
      "ould"
    ],
    [
      "O",
      "L"
    ],
    [
      "fa",
      "ther"
    ],
    [
      "f",
      "i"
    ],
    [
      "L",
      "A"
    ],
    [
      "R",
      "O"
    ],
    [
      "u",
      "se"
    ],
    [
      "T",
      "IO"
    ],
    [
      "it",
      "y"
    ],
    [
      "to",
      "o"
    ],
    [
      "ha",
      "d"
    ],
    [
      "up",
      "on"
    ],
    [
      "s",
      "on"
    ],
    [
      "d",
      "id"
    ],
    [
      "C",
      "A"
    ],
    [
      "d",
      "ay"
    ],
    [
      "i",
      "g"
    ],
    [
      "an",
      "ce"
    ],
    [
      "w",
      "ard"
    ],
    [
      "d",
      "is"
    ],
    [
      "O",
      "N"
    ],
    [
      "h",
      "ow"
    ],
    [
      "w",
      "o"
    ],
    [
      "w",
      "hich"
    ],
    [
      "de",
      "ath"
    ],
    [
      "ou",
      "n"
    ],
    [
      "re",
      "at"
    ],
    [
      "w",
      "ord"
    ],
    [
      "I",
      "S"
    ],
    [
      "f",
      "ri"
    ],
    [
      "I",
      "f"
    ],
    [
      "s",
      "p"
    ],
    [
      "w",
      "hen"
    ],
    [
      "e",
      "st"
    ],
    [
      "m",
      "en"
    ],
    [
      "spe",
      "ak"
    ],
    [
      "ent",
      "le"
    ],
    [
      "I",
      "n"
    ],
    [
      "ag",
      "ain"
    ],
    [
      "he",
      "art"
    ],
    [
      "IC",
      "H"
    ],
    [
      "R",
      "ICH"
    ],
    [
      "v",
      "i"
    ],
    [
      "f",
      "ul"
    ],
    [
      "D",
      "U"
    ],
    [
      "DU",
      "KE"
    ],
    [
      "h",
      "and"
    ],
    [
      "y",
      "et"
    ],
    [
      "o",
      "ld"
    ],
    [
      "m",
      "ar"
    ],
    [
      "e",
      "l"
    ],
    [
      "Th",
      "ou"
    ],
    [
      "ver",
      "y"
    ],
    [
      "m",
      "ine"
    ],
    [
      "U",
      "L"
    ],
    [
      "th",
      "ink"
    ],
    [
      "RICH",
      "ARD"
    ],
    [
      "EN",
      "TIO"
    ],
    [
      "ta",
      "ke"
    ],
    [
      "p",
      "l"
    ],
    [
      "s",
      "i"
    ],
    [
      "W",
      "hich"
    ],
    [
      "s",
      "we"
    ],
    [
      "a",
      "c"
    ],
    [
      "Go",
      "d"
    ],
    [
      "he",
      "ar"
    ],
    [
      "B",
      "e"
    ],
    [
      "W",
      "ith"
    ],
    [
      "in",
      "ce"
    ],
    [
      "IN",
      "C"
    ],
    [
      "st",
      "r"
    ],
    [
      "ig",
      "n"
    ],
    [
      "W",
      "hy"
    ],
    [
      "g",
      "ive"
    ],
    [
      "O",
      "f"
    ],
    [
      "n",
      "a"
    ],
    [
      "su",
      "ch"
    ],
    [
      "F",
      "irst"
    ],
    [
      "l",
      "and"
    ],
    [
      "an",
      "g"
    ],
    [
      "n",
      "ess"
    ],
    [
      "mo",
      "st"
    ],
    [
      "bl",
      "ood"
    ],
    [
      "u",
      "ch"
    ],
    [
      "A",
      "B"
    ],
    [
      "e",
      "x"
    ],
    [
      "d",
      "es"
    ],
    [
      "st",
      "er"
    ],
    [
      "bro",
      "ther"
    ],
    [
      "the",
      "se"
    ],
    [
      "te",
      "ll"
    ],
    [
      "he",
      "a"
    ],
    [
      "b",
      "r"
    ],
    [
      "t",
      "is"
    ],
    [
      "an",
      "y"
    ],
    [
      "e",
      "y"
    ],
    [
      "b",
      "a"
    ],
    [
      "is",
      "e"
    ],
    [
      "on",
      "our"
    ],
    [
      "U",
      "E"
    ],
    [
      "b",
      "re"
    ],
    [
      "o",
      "ther"
    ],
    [
      "i",
      "m"
    ],
    [
      "w",
      "here"
    ],
    [
      "ll",
      "ow"
    ],
    [
      "H",
      "ow"
    ],
    [
      "q",
      "ue"
    ],
    [
      "C",
      "ome"
    ],
    [
      "l",
      "ess"
    ],
    [
      "t",
      "y"
    ],
    [
      "ar",
      "m"
    ],
    [
      "li",
      "fe"
    ],
    [
      "c",
      "oun"
    ],
    [
      "T",
      "his"
    ],
    [
      "ES",
      "T"
    ],
    [
      "l",
      "ook"
    ],
    [
      "ne",
      "w"
    ],
    [
      "or",
      "t"
    ],
    [
      "S",
      "o"
    ],
    [
      "UC",
      "H"
    ],
    [
      "fri",
      "end"
    ],
    [
      "W",
      "ho"
    ],
    [
      "ou",
      "l"
    ],
    [
      "g",
      "entle"
    ],
    [
      "u",
      "ght"
    ],
    [
      "v",
      "o"
    ],
    [
      "G",
      "LO"
    ],
    [
      "GLO",
      "UC"
    ],
    [
      "GLOUC",
      "EST"
    ],
    [
      "GLOUCEST",
      "ER"
    ],
    [
      "c",
      "hi"
    ],
    [
      "ar",
      "s"
    ],
    [
      "a",
      "f"
    ],
    [
      "m",
      "is"
    ],
    [
      "v",
      "ing"
    ],
    [
      "ad",
      "y"
    ],
    [
      "ha",
      "st"
    ],
    [
      "L",
      "ord"
    ],
    [
      "a",
      "b"
    ],
    [
      "ur",
      "se"
    ],
    [
      "t",
      "s"
    ],
    [
      "R",
      "ome"
    ],
    [
      "n",
      "ight"
    ],
    [
      "of",
      "f"
    ],
    [
      "r",
      "own"
    ],
    [
      "fa",
      "ir"
    ],
    [
      "R",
      "Y"
    ],
    [
      "ma",
      "de"
    ],
    [
      "a",
      "ge"
    ],
    [
      "L",
      "E"
    ],
    [
      "Q",
      "UE"
    ],
    [
      "QUE",
      "EN"
    ],
    [
      "V",
      "INC"
    ],
    [
      "VINC",
      "ENTIO"
    ],
    [
      "h",
      "onour"
    ],
    [
      "S",
      "e"
    ],
    [
      "an",
      "s"
    ],
    [
      "ti",
      "on"
    ],
    [
      "m",
      "uch"
    ],
    [
      "O",
      "F"
    ],
    [
      "on",
      "d"
    ],
    [
      "I",
      "s"
    ],
    [
      "li",
      "e"
    ],
    [
      "W",
      "here"
    ],
    [
      "ur",
      "n"
    ],
    [
      "U",
      "M"
    ],
    [
      "L",
      "AN"
    ],
    [
      "st",
      "and"
    ],
    [
      "M",
      "ar"
    ],
    [
      "p",
      "re"
    ],
    [
      "con",
      "d"
    ],
    [
      "H",
      "EN"
    ],
    [
      "N",
      "ow"
    ],
    [
      "c",
      "he"
    ],
    [
      "na",
      "me"
    ],
    [
      "t",
      "le"
    ],
    [
      "e",
      "m"
    ],
    [
      "e",
      "f"
    ],
    [
      "HEN",
      "RY"
    ],
    [
      "n",
      "g"
    ],
    [
      "p",
      "art"
    ],
    [
      "ne",
      "ver"
    ],
    [
      "b",
      "er"
    ],
    [
      "fe",
      "ar"
    ],
    [
      "i",
      "o"
    ],
    [
      "c",
      "es"
    ],
    [
      "Y",
      "our"
    ],
    [
      "i",
      "es"
    ],
    [
      "li",
      "ve"
    ],
    [
      "l",
      "t"
    ],
    [
      "ow",
      "er"
    ],
    [
      "s",
      "er"
    ],
    [
      "j",
      "o"
    ],
    [
      "u",
      "ke"
    ],
    [
      "I",
      "t"
    ],
    [
      "g",
      "reat"
    ],
    [
      "c",
      "all"
    ],
    [
      "as",
      "s"
    ],
    [
      "f",
      "o"
    ],
    [
      "he",
      "ad"
    ],
    [
      "Y",
      "OR"
    ],
    [
      "YOR",
      "K"
    ],
    [
      "re",
      "e"
    ],
    [
      "u",
      "nd"
    ],
    [
      "m",
      "ent"
    ],
    [
      "at",
      "ion"
    ],
    [
      "O",
      "r"
    ],
    [
      "IN",
      "IUS"
    ],
    [
      "can",
      "not"
    ],
    [
      "pr",
      "ay"
    ],
    [
      "e",
      "ver"
    ],
    [
      "hea",
      "ven"
    ],
    [
      "re",
      "d"
    ],
    [
      "tr",
      "ue"
    ],
    [
      "a",
      "se"
    ],
    [
      "no",
      "ble"
    ],
    [
      "P",
      "ET"
    ],
    [
      "f",
      "l"
    ],
    [
      "p",
      "a"
    ],
    [
      "be",
      "en"
    ],
    [
      "swe",
      "et"
    ],
    [
      "for",
      "t"
    ],
    [
      "c",
      "o"
    ],
    [
      "A",
      "n"
    ],
    [
      "E",
      "D"
    ],
    [
      "ED",
      "W"
    ],
    [
      "EDW",
      "ARD"
    ],
    [
      "d",
      "one"
    ],
    [
      "m",
      "er"
    ],
    [
      "be",
      "t"
    ],
    [
      "G",
      "R"
    ],
    [
      "do",
      "th"
    ],
    [
      "T",
      "H"
    ],
    [
      "i",
      "z"
    ],
    [
      "ou",
      "gh"
    ],
    [
      "n",
      "or"
    ],
    [
      "r",
      "es"
    ],
    [
      "M",
      "EN"
    ],
    [
      "p",
      "t"
    ],
    [
      "L",
      "UC"
    ],
    [
      "p",
      "p"
    ],
    [
      "d",
      "a"
    ],
    [
      "ou",
      "se"
    ],
    [
      "A",
      "y"
    ],
    [
      "w",
      "ar"
    ],
    [
      "u",
      "ll"
    ],
    [
      "i",
      "e"
    ],
    [
      "com",
      "m"
    ],
    [
      "T",
      "here"
    ],
    [
      "in",
      "t"
    ],
    [
      "g",
      "r"
    ],
    [
      "re",
      "st"
    ],
    [
      "W",
      "hen"
    ],
    [
      "E",
      "d"
    ],
    [
      "be",
      "ar"
    ],
    [
      "w",
      "r"
    ],
    [
      "gra",
      "ce"
    ],
    [
      "U",
      "T"
    ],
    [
      "M",
      "E"
    ],
    [
      "be",
      "fore"
    ],
    [
      "s",
      "oul"
    ],
    [
      "Ed",
      "ward"
    ],
    [
      "RO",
      "ME"
    ],
    [
      "ROME",
      "O"
    ],
    [
      "MEN",
      "EN"
    ],
    [
      "MENEN",
      "IUS"
    ],
    [
      "wor",
      "ld"
    ],
    [
      "B",
      "y"
    ],
    [
      "bo",
      "th"
    ],
    [
      "s",
      "s"
    ],
    [
      "s",
      "c"
    ],
    [
      "que",
      "en"
    ],
    [
      "R",
      "i"
    ],
    [
      "a",
      "ce"
    ],
    [
      "L",
      "et"
    ],
    [
      "come",
      "s"
    ],
    [
      "H",
      "ere"
    ],
    [
      "Th",
      "en"
    ],
    [
      "ught",
      "er"
    ],
    [
      "or",
      "n"
    ],
    [
      "p",
      "ri"
    ],
    [
      "d",
      "own"
    ],
    [
      "de",
      "ad"
    ],
    [
      "PET",
      "R"
    ],
    [
      "PETR",
      "UCH"
    ],
    [
      "PETRUCH",
      "IO"
    ],
    [
      "ing",
      "s"
    ],
    [
      "O",
      "M"
    ],
    [
      "ve",
      "d"
    ],
    [
      "it",
      "e"
    ],
    [
      "l",
      "ong"
    ],
    [
      "pr",
      "es"
    ],
    [
      "T",
      "ES"
    ],
    [
      "a",
      "ke"
    ],
    [
      "i",
      "ce"
    ],
    [
      "be",
      "ing"
    ],
    [
      "Th",
      "an"
    ],
    [
      "wi",
      "ck"
    ],
    [
      "mo",
      "ther"
    ],
    [
      "le",
      "ave"
    ],
    [
      "r",
      "u"
    ],
    [
      "ho",
      "ld"
    ],
    [
      "my",
      "self"
    ],
    [
      "or",
      "e"
    ],
    [
      "M",
      "AR"
    ],
    [
      "se",
      "t"
    ],
    [
      "C",
      "l"
    ],
    [
      "H",
      "A"
    ],
    [
      "c",
      "our"
    ],
    [
      "th",
      "us"
    ],
    [
      "ca",
      "use"
    ],
    [
      "h",
      "ouse"
    ],
    [
      "p",
      "ut"
    ],
    [
      "o",
      "p"
    ],
    [
      "re",
      "t"
    ],
    [
      "C",
      "OR"
    ],
    [
      "COR",
      "IO"
    ],
    [
      "CORIO",
      "LAN"
    ],
    [
      "CORIOLAN",
      "US"
    ],
    [
      "I",
      "Z"
    ],
    [
      "Se",
      "cond"
    ],
    [
      "t",
      "ri"
    ],
    [
      "N",
      "or"
    ],
    [
      "wi",
      "fe"
    ],
    [
      "w",
      "hi"
    ],
    [
      "ey",
      "es"
    ],
    [
      "u",
      "ck"
    ],
    [
      "be",
      "g"
    ],
    [
      "d",
      "er"
    ],
    [
      "de",
      "ed"
    ],
    [
      "thou",
      "ght"
    ],
    [
      "c",
      "l"
    ],
    [
      "Ri",
      "ch"
    ],
    [
      "B",
      "A"
    ],
    [
      "d",
      "y"
    ],
    [
      "chi",
      "ld"
    ],
    [
      "po",
      "or"
    ],
    [
      "IN",
      "A"
    ],
    [
      "it",
      "iz"
    ],
    [
      "itiz",
      "en"
    ],
    [
      "di",
      "e"
    ],
    [
      "S",
      "he"
    ],
    [
      "D",
      "o"
    ],
    [
      "le",
      "d"
    ],
    [
      "f",
      "oo"
    ],
    [
      "t",
      "ra"
    ],
    [
      "a",
      "way"
    ],
    [
      "friend",
      "s"
    ],
    [
      "ri",
      "ght"
    ],
    [
      "I",
      "V"
    ],
    [
      "d",
      "s"
    ],
    [
      "II",
      "I"
    ],
    [
      "m",
      "ight"
    ],
    [
      "S",
      "ir"
    ],
    [
      "st",
      "ay"
    ],
    [
      "at",
      "ter"
    ],
    [
      "c",
      "rown"
    ],
    [
      "k",
      "s"
    ],
    [
      "p",
      "la"
    ],
    [
      "at",
      "ch"
    ],
    [
      "li",
      "ght"
    ],
    [
      "t",
      "en"
    ],
    [
      "man",
      "y"
    ],
    [
      "b",
      "id"
    ],
    [
      "f",
      "t"
    ],
    [
      "in",
      "s"
    ],
    [
      "W",
      "ar"
    ],
    [
      "War",
      "wick"
    ],
    [
      "g",
      "ri"
    ],
    [
      "l",
      "it"
    ],
    [
      "a",
      "ch"
    ],
    [
      "t",
      "re"
    ],
    [
      "H",
      "is"
    ],
    [
      "p",
      "s"
    ],
    [
      "T",
      "is"
    ],
    [
      "is",
      "on"
    ],
    [
      "ci",
      "ous"
    ],
    [
      "po",
      "se"
    ],
    [
      "IS",
      "AB"
    ],
    [
      "ISAB",
      "EL"
    ],
    [
      "ISABEL",
      "LA"
    ],
    [
      "m",
      "i"
    ],
    [
      "an",
      "ge"
    ],
    [
      "da",
      "ughter"
    ],
    [
      "no",
      "thing"
    ],
    [
      "Rome",
      "o"
    ],
    [
      "t",
      "al"
    ],
    [
      "We",
      "ll"
    ],
    [
      "k",
      "ind"
    ],
    [
      "t",
      "ong"
    ],
    [
      "b",
      "ra"
    ],
    [
      "fa",
      "ce"
    ],
    [
      "g",
      "one"
    ],
    [
      "R",
      "AN"
    ],
    [
      "bet",
      "ter"
    ],
    [
      "m",
      "ad"
    ],
    [
      "p",
      "ar"
    ],
    [
      "k",
      "es"
    ],
    [
      "ti",
      "ll"
    ],
    [
      "o",
      "se"
    ],
    [
      "for",
      "d"
    ],
    [
      "J",
      "UL"
    ],
    [
      "JUL",
      "I"
    ],
    [
      "JULI",
      "ET"
    ],
    [
      "LE",
      "ON"
    ],
    [
      "LEON",
      "TES"
    ],
    [
      "g",
      "u"
    ],
    [
      "N",
      "ay"
    ],
    [
      "thou",
      "gh"
    ],
    [
      "word",
      "s"
    ],
    [
      "en",
      "g"
    ],
    [
      "V",
      "I"
    ],
    [
      "pr",
      "ince"
    ],
    [
      "t",
      "ed"
    ],
    [
      "I",
      "L"
    ],
    [
      "or",
      "s"
    ],
    [
      "a",
      "ble"
    ],
    [
      "ear",
      "s"
    ],
    [
      "un",
      "e"
    ],
    [
      "LA",
      "D"
    ],
    [
      "LAD",
      "Y"
    ],
    [
      "sh",
      "ow"
    ],
    [
      "w",
      "er"
    ],
    [
      "V",
      "OL"
    ],
    [
      "EN",
      "C"
    ],
    [
      "ENC",
      "E"
    ],
    [
      "S",
      "T"
    ],
    [
      "t",
      "end"
    ],
    [
      "i",
      "ther"
    ],
    [
      "new",
      "s"
    ],
    [
      "B",
      "R"
    ],
    [
      "b",
      "an"
    ],
    [
      "T",
      "A"
    ],
    [
      "C",
      "itizen"
    ],
    [
      "again",
      "st"
    ],
    [
      "be",
      "st"
    ],
    [
      "s",
      "ent"
    ],
    [
      "i",
      "c"
    ],
    [
      "S",
      "er"
    ],
    [
      "ur",
      "der"
    ],
    [
      "C",
      "L"
    ],
    [
      "jo",
      "y"
    ],
    [
      "th",
      "ose"
    ],
    [
      "P",
      "ro"
    ],
    [
      "lit",
      "tle"
    ],
    [
      "S",
      "IC"
    ],
    [
      "SIC",
      "INIUS"
    ],
    [
      "hen",
      "ce"
    ],
    [
      "b",
      "and"
    ],
    [
      "h",
      "our"
    ],
    [
      "lord",
      "s"
    ],
    [
      "s",
      "le"
    ],
    [
      "t",
      "ent"
    ],
    [
      "f",
      "ar"
    ],
    [
      "c",
      "tion"
    ],
    [
      "c",
      "y"
    ],
    [
      "S",
      "ha"
    ],
    [
      "ard",
      "on"
    ],
    [
      "p",
      "ur"
    ],
    [
      "U",
      "n"
    ],
    [
      "ke",
      "ep"
    ],
    [
      "de",
      "ar"
    ],
    [
      "he",
      "l"
    ],
    [
      "ch",
      "ar"
    ],
    [
      "t",
      "ain"
    ],
    [
      "t",
      "wo"
    ],
    [
      "st",
      "ill"
    ],
    [
      "la",
      "w"
    ],
    [
      "GR",
      "E"
    ],
    [
      "him",
      "self"
    ],
    [
      "No",
      "t"
    ],
    [
      "for",
      "th"
    ],
    [
      "p",
      "ower"
    ],
    [
      "d",
      "en"
    ],
    [
      "me",
      "an"
    ],
    [
      "ro",
      "y"
    ],
    [
      "ba",
      "ck"
    ],
    [
      "f",
      "ull"
    ],
    [
      "Th",
      "y"
    ],
    [
      "LUC",
      "IO"
    ],
    [
      "it",
      "s"
    ],
    [
      "un",
      "to"
    ],
    [
      "su",
      "b"
    ],
    [
      "Rich",
      "ard"
    ],
    [
      "H",
      "ave"
    ],
    [
      "pe",
      "ace"
    ],
    [
      "e",
      "ch"
    ],
    [
      "there",
      "fore"
    ],
    [
      "f",
      "irst"
    ],
    [
      "r",
      "en"
    ],
    [
      "in",
      "ess"
    ],
    [
      "W",
      "ill"
    ],
    [
      "tong",
      "ue"
    ],
    [
      "el",
      "se"
    ],
    [
      "b",
      "es"
    ],
    [
      "c",
      "ould"
    ],
    [
      "hi",
      "gh"
    ],
    [
      "as",
      "on"
    ],
    [
      "ho",
      "pe"
    ],
    [
      "ri",
      "ed"
    ],
    [
      "Y",
      "or"
    ],
    [
      "d",
      "uke"
    ],
    [
      "ne",
      "ed"
    ],
    [
      "ou",
      "ght"
    ],
    [
      "h",
      "us"
    ],
    [
      "con",
      "f"
    ],
    [
      "ar",
      "k"
    ],
    [
      "c",
      "ut"
    ],
    [
      "n",
      "at"
    ],
    [
      "und",
      "er"
    ],
    [
      "f",
      "ind"
    ],
    [
      "th",
      "ine"
    ],
    [
      "l",
      "ady"
    ],
    [
      "ear",
      "th"
    ],
    [
      "you",
      "ng"
    ],
    [
      "Yor",
      "k"
    ],
    [
      "EL",
      "IZ"
    ],
    [
      "ELIZ",
      "AB"
    ],
    [
      "ELIZAB",
      "ET"
    ],
    [
      "ELIZABET",
      "H"
    ],
    [
      "c",
      "ha"
    ],
    [
      "ca",
      "me"
    ],
    [
      "th",
      "r"
    ],
    [
      "G",
      "ood"
    ],
    [
      "d",
      "re"
    ],
    [
      "o",
      "ple"
    ],
    [
      "j",
      "e"
    ],
    [
      "r",
      "an"
    ],
    [
      "j",
      "ust"
    ],
    [
      "m",
      "ind"
    ],
    [
      "g",
      "et"
    ],
    [
      "h",
      "ome"
    ],
    [
      "ma",
      "ster"
    ],
    [
      "I",
      "AN"
    ],
    [
      "pe",
      "ople"
    ],
    [
      "on",
      "ce"
    ],
    [
      "Y",
      "et"
    ],
    [
      "hus",
      "band"
    ],
    [
      "H",
      "en"
    ],
    [
      "Hen",
      "ry"
    ],
    [
      "com",
      "p"
    ],
    [
      "pla",
      "ce"
    ],
    [
      "see",
      "m"
    ],
    [
      "are",
      "well"
    ],
    [
      "I",
      "A"
    ],
    [
      "l",
      "ay"
    ],
    [
      "af",
      "ter"
    ],
    [
      "qu",
      "i"
    ],
    [
      "ha",
      "pp"
    ],
    [
      "s",
      "or"
    ],
    [
      "P",
      "ER"
    ],
    [
      "A",
      "ll"
    ],
    [
      "st",
      "e"
    ],
    [
      "Sha",
      "ll"
    ],
    [
      "f",
      "all"
    ],
    [
      "c",
      "le"
    ],
    [
      "G",
      "E"
    ],
    [
      "W",
      "AR"
    ],
    [
      "WAR",
      "W"
    ],
    [
      "WARW",
      "IC"
    ],
    [
      "WARWIC",
      "K"
    ],
    [
      "w",
      "hy"
    ],
    [
      "is",
      "ter"
    ],
    [
      "fe",
      "llow"
    ],
    [
      "fo",
      "llow"
    ],
    [
      "be",
      "d"
    ],
    [
      "we",
      "l"
    ],
    [
      "v",
      "ant"
    ],
    [
      "la",
      "st"
    ],
    [
      "N",
      "urse"
    ],
    [
      "re",
      "p"
    ],
    [
      "ple",
      "ase"
    ],
    [
      "The",
      "y"
    ],
    [
      "n",
      "one"
    ],
    [
      "HA",
      "M"
    ],
    [
      "hi",
      "ther"
    ],
    [
      "h",
      "or"
    ],
    [
      "sa",
      "id"
    ],
    [
      "d",
      "r"
    ],
    [
      "g",
      "i"
    ],
    [
      "p",
      "ardon"
    ],
    [
      "tr",
      "u"
    ],
    [
      "mor",
      "row"
    ],
    [
      "CA",
      "P"
    ],
    [
      "CAP",
      "UL"
    ],
    [
      "CAPUL",
      "ET"
    ],
    [
      "ou",
      "d"
    ],
    [
      "e",
      "very"
    ],
    [
      "g",
      "l"
    ],
    [
      "d",
      "ou"
    ],
    [
      "b",
      "u"
    ],
    [
      "br",
      "ing"
    ],
    [
      "hand",
      "s"
    ],
    [
      "k",
      "ill"
    ],
    [
      "p",
      "at"
    ],
    [
      "wo",
      "man"
    ],
    [
      "bo",
      "y"
    ],
    [
      "g",
      "ue"
    ],
    [
      "ous",
      "in"
    ],
    [
      "M",
      "IO"
    ],
    [
      "tr",
      "y"
    ],
    [
      "s",
      "hi"
    ],
    [
      "sha",
      "me"
    ],
    [
      "ac",
      "c"
    ],
    [
      "he",
      "ard"
    ],
    [
      "m",
      "ber"
    ],
    [
      "BR",
      "UT"
    ],
    [
      "BRUT",
      "US"
    ],
    [
      "te",
      "m"
    ],
    [
      "B",
      "UC"
    ],
    [
      "BUC",
      "KING"
    ],
    [
      "BUCKING",
      "HAM"
    ],
    [
      "i",
      "us"
    ],
    [
      "f",
      "f"
    ],
    [
      "b",
      "us"
    ],
    [
      "F",
      "rom"
    ],
    [
      "at",
      "es"
    ],
    [
      "j",
      "est"
    ],
    [
      "c",
      "lo"
    ],
    [
      "d",
      "ra"
    ],
    [
      "ES",
      "S"
    ],
    [
      "B",
      "OL"
    ],
    [
      "BOL",
      "ING"
    ],
    [
      "BOLING",
      "B"
    ],
    [
      "BOLINGB",
      "RO"
    ],
    [
      "BOLINGBRO",
      "KE"
    ],
    [
      "LA",
      "U"
    ],
    [
      "T",
      "RAN"
    ],
    [
      "TRAN",
      "IO"
    ],
    [
      "who",
      "se"
    ],
    [
      "s",
      "and"
    ],
    [
      "c",
      "ar"
    ],
    [
      "pres",
      "ent"
    ],
    [
      "te",
      "ars"
    ],
    [
      "ut",
      "y"
    ],
    [
      "M",
      "IL"
    ],
    [
      "vo",
      "st"
    ],
    [
      "O",
      "ur"
    ],
    [
      "b",
      "ri"
    ],
    [
      "v",
      "y"
    ],
    [
      "k",
      "en"
    ],
    [
      "ma",
      "id"
    ],
    [
      "roy",
      "al"
    ],
    [
      "T",
      "IS"
    ],
    [
      "s",
      "en"
    ],
    [
      "st",
      "ate"
    ],
    [
      "la",
      "ck"
    ],
    [
      "s",
      "ince"
    ],
    [
      "p",
      "ass"
    ],
    [
      "c",
      "er"
    ],
    [
      "c",
      "ent"
    ],
    [
      "w",
      "it"
    ],
    [
      "wr",
      "ong"
    ],
    [
      "c",
      "ur"
    ],
    [
      "g",
      "ar"
    ],
    [
      "me",
      "et"
    ],
    [
      "f",
      "al"
    ],
    [
      "sor",
      "row"
    ],
    [
      "K",
      "ing"
    ],
    [
      "N",
      "E"
    ],
    [
      "MAR",
      "G"
    ],
    [
      "MARG",
      "AR"
    ],
    [
      "MARGAR",
      "ET"
    ],
    [
      "g",
      "ain"
    ],
    [
      "ey",
      "e"
    ],
    [
      "s",
      "un"
    ],
    [
      "pr",
      "ison"
    ],
    [
      "A",
      "TH"
    ],
    [
      "whi",
      "le"
    ],
    [
      "v",
      "ir"
    ],
    [
      "hel",
      "p"
    ],
    [
      "O",
      "n"
    ],
    [
      "who",
      "m"
    ],
    [
      "CA",
      "L"
    ],
    [
      "l",
      "es"
    ],
    [
      "p",
      "i"
    ],
    [
      "it",
      "ion"
    ],
    [
      "sel",
      "ves"
    ],
    [
      "thou",
      "sand"
    ],
    [
      "ans",
      "wer"
    ],
    [
      "t",
      "ing"
    ],
    [
      "ab",
      "out"
    ],
    [
      "g",
      "en"
    ],
    [
      "re",
      "me"
    ],
    [
      "w",
      "n"
    ],
    [
      "B",
      "o"
    ],
    [
      "v",
      "ere"
    ],
    [
      "gra",
      "cious"
    ],
    [
      "x",
      "t"
    ],
    [
      "tr",
      "ess"
    ],
    [
      "Cl",
      "ar"
    ],
    [
      "OR",
      "D"
    ],
    [
      "AN",
      "GE"
    ],
    [
      "ANGE",
      "LO"
    ],
    [
      "H",
      "OR"
    ],
    [
      "v",
      "il"
    ],
    [
      "g",
      "re"
    ],
    [
      "foo",
      "l"
    ],
    [
      "li",
      "es"
    ],
    [
      "we",
      "ep"
    ],
    [
      "is",
      "s"
    ],
    [
      "Clar",
      "ence"
    ],
    [
      "E",
      "ng"
    ],
    [
      "C",
      "U"
    ],
    [
      "AR",
      "INA"
    ],
    [
      "Mar",
      "ci"
    ],
    [
      "ce",
      "ive"
    ],
    [
      "n",
      "ing"
    ],
    [
      "m",
      "on"
    ],
    [
      "K",
      "ATH"
    ],
    [
      "KATH",
      "ARINA"
    ],
    [
      "Marci",
      "us"
    ],
    [
      "vi",
      "ce"
    ],
    [
      "o",
      "ver"
    ],
    [
      "gentle",
      "man"
    ],
    [
      "in",
      "to"
    ],
    [
      "S",
      "t"
    ],
    [
      "bo",
      "dy"
    ],
    [
      "p",
      "et"
    ],
    [
      "st",
      "ri"
    ],
    [
      "g",
      "ed"
    ],
    [
      "as",
      "ure"
    ],
    [
      "c",
      "ousin"
    ],
    [
      "or",
      "y"
    ],
    [
      "re",
      "ady"
    ],
    [
      "ma",
      "kes"
    ],
    [
      "hat",
      "e"
    ],
    [
      "U",
      "p"
    ],
    [
      "for",
      "m"
    ],
    [
      "t",
      "urn"
    ],
    [
      "sp",
      "ir"
    ],
    [
      "se",
      "d"
    ],
    [
      "gri",
      "ef"
    ],
    [
      "ES",
      "CAL"
    ],
    [
      "ESCAL",
      "US"
    ],
    [
      "je",
      "ct"
    ],
    [
      "con",
      "tent"
    ],
    [
      "u",
      "d"
    ],
    [
      "e",
      "ld"
    ],
    [
      "b",
      "t"
    ],
    [
      "ang",
      "er"
    ],
    [
      "P",
      "r"
    ],
    [
      "H",
      "er"
    ],
    [
      "bro",
      "ke"
    ],
    [
      "pro",
      "ve"
    ],
    [
      "fort",
      "une"
    ],
    [
      "H",
      "ath"
    ],
    [
      "do",
      "st"
    ],
    [
      "er",
      "y"
    ],
    [
      "c",
      "ra"
    ],
    [
      "d",
      "ow"
    ],
    [
      "A",
      "U"
    ],
    [
      "we",
      "ar"
    ],
    [
      "wi",
      "lt"
    ],
    [
      "s",
      "l"
    ],
    [
      "v",
      "ill"
    ],
    [
      "D",
      "uke"
    ],
    [
      "D",
      "UCH"
    ],
    [
      "DUCH",
      "ESS"
    ],
    [
      "un",
      "t"
    ],
    [
      "r",
      "ant"
    ],
    [
      "pl",
      "ay"
    ],
    [
      "po",
      "s"
    ],
    [
      "p",
      "her"
    ],
    [
      "sle",
      "ep"
    ],
    [
      "it",
      "or"
    ],
    [
      "RO",
      "S"
    ],
    [
      "An",
      "ge"
    ],
    [
      "fa",
      "ul"
    ],
    [
      "arm",
      "s"
    ],
    [
      "k",
      "ne"
    ],
    [
      "c",
      "ess"
    ],
    [
      "than",
      "k"
    ],
    [
      "swe",
      "ar"
    ],
    [
      "s",
      "ound"
    ],
    [
      "time",
      "s"
    ],
    [
      "urder",
      "er"
    ],
    [
      "an",
      "ca"
    ],
    [
      "Ange",
      "lo"
    ],
    [
      "in",
      "deed"
    ],
    [
      "gra",
      "ve"
    ],
    [
      "an",
      "other"
    ],
    [
      "e",
      "ech"
    ],
    [
      "o",
      "st"
    ],
    [
      "fal",
      "se"
    ],
    [
      "is",
      "ed"
    ],
    [
      "w",
      "a"
    ],
    [
      "CA",
      "MIL"
    ],
    [
      "CAMIL",
      "LO"
    ],
    [
      "W",
      "ould"
    ],
    [
      "ha",
      "s"
    ],
    [
      "e",
      "ven"
    ],
    [
      "m",
      "atter"
    ],
    [
      "E",
      "ven"
    ],
    [
      "pat",
      "i"
    ],
    [
      "b",
      "al"
    ],
    [
      "tal",
      "k"
    ],
    [
      "com",
      "fort"
    ],
    [
      "happ",
      "y"
    ],
    [
      "Pro",
      "vost"
    ],
    [
      "me",
      "d"
    ],
    [
      "f",
      "ight"
    ],
    [
      "su",
      "re"
    ],
    [
      "re",
      "ason"
    ],
    [
      "ain",
      "t"
    ],
    [
      "vere",
      "ign"
    ],
    [
      "T",
      "y"
    ],
    [
      "HOR",
      "T"
    ],
    [
      "HORT",
      "EN"
    ],
    [
      "HORTEN",
      "S"
    ],
    [
      "v",
      "ent"
    ],
    [
      "coun",
      "try"
    ],
    [
      "on",
      "ly"
    ],
    [
      "c",
      "or"
    ],
    [
      "of",
      "fi"
    ],
    [
      "ou",
      "ch"
    ],
    [
      "Up",
      "on"
    ],
    [
      "so",
      "vereign"
    ],
    [
      "st",
      "ra"
    ],
    [
      "ban",
      "ish"
    ],
    [
      "F",
      "R"
    ],
    [
      "FR",
      "I"
    ],
    [
      "FRI",
      "AR"
    ],
    [
      "HORTENS",
      "IO"
    ],
    [
      "ra",
      "ther"
    ],
    [
      "lie",
      "ve"
    ],
    [
      "vir",
      "t"
    ],
    [
      "c",
      "are"
    ],
    [
      "m",
      "in"
    ],
    [
      "s",
      "end"
    ],
    [
      "v",
      "a"
    ],
    [
      "w",
      "ish"
    ],
    [
      "tru",
      "th"
    ],
    [
      "y",
      "ears"
    ],
    [
      "A",
      "re"
    ],
    [
      "T",
      "hi"
    ],
    [
      "BA",
      "P"
    ],
    [
      "BAP",
      "TIS"
    ],
    [
      "BAPTIS",
      "TA"
    ],
    [
      "re",
      "ven"
    ],
    [
      "one",
      "st"
    ],
    [
      "bus",
      "iness"
    ],
    [
      "s",
      "la"
    ],
    [
      "C",
      "OM"
    ],
    [
      "COM",
      "INIUS"
    ],
    [
      "M",
      "ore"
    ],
    [
      "go",
      "t"
    ],
    [
      "i",
      "re"
    ],
    [
      "b",
      "it"
    ],
    [
      "A",
      "UT"
    ],
    [
      "AUT",
      "OL"
    ],
    [
      "AUTOL",
      "Y"
    ],
    [
      "AUTOLY",
      "C"
    ],
    [
      "AUTOLYC",
      "US"
    ],
    [
      "en",
      "e"
    ],
    [
      "w",
      "ant"
    ],
    [
      "i",
      "ous"
    ],
    [
      "des",
      "er"
    ],
    [
      "h",
      "ang"
    ],
    [
      "A",
      "t"
    ],
    [
      "w",
      "om"
    ],
    [
      "s",
      "po"
    ],
    [
      "Thi",
      "r"
    ],
    [
      "Thir",
      "d"
    ],
    [
      "sha",
      "lt"
    ],
    [
      "CL",
      "AR"
    ],
    [
      "CLAR",
      "ENCE"
    ],
    [
      "E",
      "Y"
    ],
    [
      "ie",
      "ld"
    ],
    [
      "bre",
      "ath"
    ],
    [
      "ur",
      "y"
    ],
    [
      "y",
      "e"
    ],
    [
      "comm",
      "and"
    ],
    [
      "ar",
      "n"
    ],
    [
      "w",
      "ind"
    ],
    [
      "pher",
      "d"
    ],
    [
      "se",
      "a"
    ],
    [
      "dre",
      "am"
    ],
    [
      "comm",
      "on"
    ],
    [
      "S",
      "h"
    ],
    [
      "p",
      "rom"
    ],
    [
      "th",
      "ree"
    ],
    [
      "T",
      "ake"
    ],
    [
      "G",
      "entle"
    ],
    [
      "fe",
      "ct"
    ],
    [
      "la",
      "u"
    ],
    [
      "ho",
      "ly"
    ],
    [
      "N",
      "OR"
    ],
    [
      "B",
      "EN"
    ],
    [
      "BEN",
      "VOL"
    ],
    [
      "BENVOL",
      "IO"
    ],
    [
      "Cl",
      "own"
    ],
    [
      "en",
      "ough"
    ],
    [
      "i",
      "gh"
    ],
    [
      "so",
      "ld"
    ],
    [
      "dou",
      "bt"
    ],
    [
      "T",
      "e"
    ],
    [
      "wel",
      "come"
    ],
    [
      "p",
      "ity"
    ],
    [
      "hor",
      "se"
    ],
    [
      "t",
      "w"
    ],
    [
      "M",
      "ER"
    ],
    [
      "P",
      "A"
    ],
    [
      "GR",
      "UM"
    ],
    [
      "GRUM",
      "IO"
    ],
    [
      "P",
      "ROS"
    ],
    [
      "PROS",
      "PER"
    ],
    [
      "PROSPER",
      "O"
    ],
    [
      "at",
      "or"
    ],
    [
      "a",
      "ir"
    ],
    [
      "li",
      "ves"
    ],
    [
      "h",
      "um"
    ],
    [
      "re",
      "ad"
    ],
    [
      "pe",
      "ct"
    ],
    [
      "vill",
      "ain"
    ],
    [
      "be",
      "a"
    ],
    [
      "M",
      "urderer"
    ],
    [
      "MER",
      "CU"
    ],
    [
      "MERCU",
      "TIO"
    ],
    [
      "K",
      "ate"
    ],
    [
      "go",
      "ds"
    ],
    [
      "nat",
      "ure"
    ],
    [
      "L",
      "i"
    ],
    [
      "ent",
      "s"
    ],
    [
      "an",
      "ta"
    ],
    [
      "l",
      "ate"
    ],
    [
      "W",
      "ere"
    ],
    [
      "wor",
      "n"
    ],
    [
      "f",
      "ree"
    ],
    [
      "mad",
      "am"
    ],
    [
      "b",
      "orn"
    ],
    [
      "as",
      "k"
    ],
    [
      "with",
      "in"
    ],
    [
      "J",
      "u"
    ],
    [
      "k",
      "iss"
    ],
    [
      "Ser",
      "vant"
    ],
    [
      "LUC",
      "ENTIO"
    ],
    [
      "c",
      "ity"
    ],
    [
      "our",
      "s"
    ],
    [
      "thing",
      "s"
    ],
    [
      "c",
      "re"
    ],
    [
      "for",
      "ce"
    ],
    [
      "A",
      "l"
    ],
    [
      "que",
      "st"
    ],
    [
      "mis",
      "tress"
    ],
    [
      "s",
      "ister"
    ],
    [
      "LAN",
      "D"
    ],
    [
      "P",
      "OM"
    ],
    [
      "POM",
      "P"
    ],
    [
      "y",
      "ield"
    ],
    [
      "pr",
      "oud"
    ],
    [
      "R",
      "o"
    ],
    [
      "fi",
      "re"
    ],
    [
      "bes",
      "eech"
    ],
    [
      "me",
      "ans"
    ],
    [
      "W",
      "as"
    ],
    [
      "sa",
      "w"
    ],
    [
      "G",
      "ive"
    ],
    [
      "w",
      "ound"
    ],
    [
      "sub",
      "ject"
    ],
    [
      "ent",
      "er"
    ],
    [
      "o",
      "ath"
    ],
    [
      "f",
      "oul"
    ],
    [
      "PA",
      "UL"
    ],
    [
      "PAUL",
      "INA"
    ],
    [
      "gain",
      "st"
    ],
    [
      "C",
      "on"
    ],
    [
      "of",
      "t"
    ],
    [
      "m",
      "s"
    ],
    [
      "de",
      "li"
    ],
    [
      "ge",
      "ther"
    ],
    [
      "ond",
      "er"
    ],
    [
      "your",
      "s"
    ],
    [
      "ap",
      "pe"
    ],
    [
      "fa",
      "ith"
    ],
    [
      "S",
      "ay"
    ],
    [
      "se",
      "en"
    ],
    [
      "re",
      "l"
    ],
    [
      "POMP",
      "EY"
    ],
    [
      "GRE",
      "MIO"
    ],
    [
      "h",
      "onest"
    ],
    [
      "sold",
      "i"
    ],
    [
      "pl",
      "ain"
    ],
    [
      "s",
      "m"
    ],
    [
      "gen",
      "er"
    ],
    [
      "ver",
      "s"
    ],
    [
      "cour",
      "t"
    ],
    [
      "w",
      "in"
    ],
    [
      "tr",
      "ust"
    ],
    [
      "VOL",
      "UM"
    ],
    [
      "VOLUM",
      "N"
    ],
    [
      "VOLUMN",
      "IA"
    ],
    [
      "your",
      "self"
    ],
    [
      "blood",
      "y"
    ],
    [
      "look",
      "s"
    ],
    [
      "L",
      "ook"
    ],
    [
      "de",
      "m"
    ],
    [
      "p",
      "ain"
    ],
    [
      "g",
      "ro"
    ],
    [
      "bl",
      "es"
    ],
    [
      "c",
      "la"
    ],
    [
      "Eng",
      "land"
    ],
    [
      "Ty",
      "bal"
    ],
    [
      "P",
      "OL"
    ],
    [
      "POL",
      "I"
    ],
    [
      "POLI",
      "X"
    ],
    [
      "POLIX",
      "EN"
    ],
    [
      "POLIXEN",
      "ES"
    ],
    [
      "AN",
      "T"
    ],
    [
      "i",
      "or"
    ],
    [
      "bre",
      "ak"
    ],
    [
      "eng",
      "er"
    ],
    [
      "S",
      "ome"
    ],
    [
      "v",
      "is"
    ],
    [
      "be",
      "at"
    ],
    [
      "shi",
      "p"
    ],
    [
      "un",
      "cle"
    ],
    [
      "hast",
      "e"
    ],
    [
      "tra",
      "itor"
    ],
    [
      "Ser",
      "ving"
    ],
    [
      "Serving",
      "man"
    ],
    [
      "HA",
      "ST"
    ],
    [
      "HAST",
      "ING"
    ],
    [
      "HASTING",
      "S"
    ],
    [
      "B",
      "ER"
    ],
    [
      "Tybal",
      "t"
    ],
    [
      "cent",
      "io"
    ],
    [
      "G",
      "ON"
    ],
    [
      "b",
      "at"
    ],
    [
      "D",
      "id"
    ],
    [
      "po",
      "int"
    ],
    [
      "ch",
      "ange"
    ],
    [
      "s",
      "it"
    ],
    [
      "un",
      "es"
    ],
    [
      "s",
      "in"
    ],
    [
      "to",
      "gether"
    ],
    [
      "ha",
      "l"
    ],
    [
      "day",
      "s"
    ],
    [
      "tend",
      "er"
    ],
    [
      "per",
      "son"
    ],
    [
      "think",
      "s"
    ],
    [
      "child",
      "ren"
    ],
    [
      "M",
      "ay"
    ],
    [
      "C",
      "an"
    ],
    [
      "H",
      "ast"
    ],
    [
      "ma",
      "jest"
    ],
    [
      "LAU",
      "R"
    ],
    [
      "LAUR",
      "ENCE"
    ],
    [
      "s",
      "word"
    ],
    [
      "w",
      "is"
    ],
    [
      "to",
      "ld"
    ],
    [
      "ck",
      "s"
    ],
    [
      "g",
      "a"
    ],
    [
      "d",
      "anger"
    ],
    [
      "war",
      "rant"
    ],
    [
      "ow",
      "s"
    ],
    [
      "le",
      "ft"
    ],
    [
      "ad",
      "v"
    ],
    [
      "foo",
      "t"
    ],
    [
      "There",
      "fore"
    ],
    [
      "mer",
      "cy"
    ],
    [
      "ar",
      "y"
    ],
    [
      "l",
      "am"
    ],
    [
      "s",
      "ight"
    ],
    [
      "w",
      "at"
    ],
    [
      "majest",
      "y"
    ],
    [
      "B",
      "Y"
    ],
    [
      "A",
      "h"
    ],
    [
      "Ju",
      "li"
    ],
    [
      "wo",
      "e"
    ],
    [
      "P",
      "et"
    ],
    [
      "rep",
      "ort"
    ],
    [
      "l",
      "ing"
    ],
    [
      "ut",
      "e"
    ],
    [
      "de",
      "st"
    ],
    [
      "z",
      "e"
    ],
    [
      "sa",
      "ve"
    ],
    [
      "f",
      "arewell"
    ],
    [
      "on",
      "es"
    ],
    [
      "li",
      "f"
    ],
    [
      "CL",
      "I"
    ],
    [
      "CLI",
      "F"
    ],
    [
      "CLIF",
      "F"
    ],
    [
      "NOR",
      "TH"
    ],
    [
      "NORTH",
      "UM"
    ],
    [
      "NORTHUM",
      "BER"
    ],
    [
      "NORTHUMBER",
      "LAND"
    ],
    [
      "know",
      "n"
    ],
    [
      "Thou",
      "gh"
    ],
    [
      "wor",
      "thy"
    ],
    [
      "just",
      "ice"
    ],
    [
      "hal",
      "f"
    ],
    [
      "s",
      "ing"
    ],
    [
      "I",
      "D"
    ],
    [
      "ret",
      "urn"
    ],
    [
      "Te",
      "ll"
    ],
    [
      "do",
      "es"
    ],
    [
      "che",
      "s"
    ],
    [
      "dra",
      "w"
    ],
    [
      "us",
      "h"
    ],
    [
      "s",
      "ad"
    ],
    [
      "go",
      "ld"
    ],
    [
      "c",
      "old"
    ],
    [
      "r",
      "ance"
    ],
    [
      "mar",
      "ry"
    ],
    [
      "L",
      "u"
    ],
    [
      "M",
      "on"
    ],
    [
      "pur",
      "pose"
    ],
    [
      "thr",
      "ough"
    ],
    [
      "n",
      "er"
    ],
    [
      "r",
      "un"
    ],
    [
      "C",
      "om"
    ],
    [
      "C",
      "or"
    ],
    [
      "is",
      "t"
    ],
    [
      "su",
      "e"
    ],
    [
      "h",
      "ard"
    ],
    [
      "be",
      "lieve"
    ],
    [
      "g",
      "row"
    ],
    [
      "with",
      "out"
    ],
    [
      "ter",
      "s"
    ],
    [
      "hea",
      "vy"
    ],
    [
      "n",
      "urse"
    ],
    [
      "so",
      "on"
    ],
    [
      "AN",
      "NE"
    ],
    [
      "i",
      "ly"
    ],
    [
      "L",
      "e"
    ],
    [
      "str",
      "ange"
    ],
    [
      "H",
      "ad"
    ],
    [
      "pl",
      "uck"
    ],
    [
      "f",
      "ly"
    ],
    [
      "s",
      "il"
    ],
    [
      "W",
      "hi"
    ],
    [
      "a",
      "the"
    ],
    [
      "lo",
      "st"
    ],
    [
      "he",
      "ir"
    ],
    [
      "C",
      "lif"
    ],
    [
      "P",
      "R"
    ],
    [
      "PR",
      "INC"
    ],
    [
      "PRINC",
      "E"
    ],
    [
      "S",
      "ign"
    ],
    [
      "Juli",
      "et"
    ],
    [
      "ce",
      "ed"
    ],
    [
      "con",
      "s"
    ],
    [
      "c",
      "urse"
    ],
    [
      "f",
      "it"
    ],
    [
      "say",
      "s"
    ],
    [
      "c",
      "ry"
    ],
    [
      "be",
      "l"
    ],
    [
      "f",
      "ound"
    ],
    [
      "G",
      "re"
    ],
    [
      "o",
      "be"
    ],
    [
      "char",
      "ge"
    ],
    [
      "spir",
      "it"
    ],
    [
      "ent",
      "y"
    ],
    [
      "p",
      "ast"
    ],
    [
      "ne",
      "ar"
    ],
    [
      "lo",
      "ss"
    ],
    [
      "thy",
      "self"
    ],
    [
      "p",
      "en"
    ],
    [
      "Clif",
      "ford"
    ],
    [
      "lie",
      "ge"
    ],
    [
      "B",
      "ol"
    ],
    [
      "Bol",
      "ing"
    ],
    [
      "Boling",
      "broke"
    ],
    [
      "Sign",
      "ior"
    ],
    [
      "O",
      "ne"
    ],
    [
      "t",
      "it"
    ],
    [
      "str",
      "ong"
    ],
    [
      "he",
      "d"
    ],
    [
      "R",
      "e"
    ],
    [
      "Sh",
      "ould"
    ],
    [
      "i",
      "de"
    ],
    [
      "t",
      "ro"
    ],
    [
      "w",
      "all"
    ],
    [
      "ou",
      "th"
    ],
    [
      "s",
      "worn"
    ],
    [
      "F",
      "arewell"
    ],
    [
      "M",
      "e"
    ],
    [
      "A",
      "way"
    ],
    [
      "f",
      "et"
    ],
    [
      "pa",
      "ir"
    ],
    [
      "gr",
      "ound"
    ],
    [
      "do",
      "m"
    ],
    [
      "Who",
      "se"
    ],
    [
      "ha",
      "m"
    ],
    [
      "C",
      "am"
    ],
    [
      "C",
      "a"
    ],
    [
      "use",
      "d"
    ],
    [
      "in",
      "str"
    ],
    [
      "g",
      "s"
    ],
    [
      "w",
      "ise"
    ],
    [
      "bo",
      "ld"
    ],
    [
      "ent",
      "reat"
    ],
    [
      "eng",
      "th"
    ],
    [
      "fa",
      "st"
    ],
    [
      "de",
      "ep"
    ],
    [
      "w",
      "oo"
    ],
    [
      "Pr",
      "ay"
    ],
    [
      "de",
      "vil"
    ],
    [
      "ser",
      "vice"
    ],
    [
      "i",
      "ces"
    ],
    [
      "cla",
      "im"
    ],
    [
      "mar",
      "ried"
    ],
    [
      "ast",
      "er"
    ],
    [
      "Mon",
      "ta"
    ],
    [
      "fri",
      "ar"
    ],
    [
      "in",
      "a"
    ],
    [
      "A",
      "LO"
    ],
    [
      "Li",
      "ke"
    ],
    [
      "reme",
      "mber"
    ],
    [
      "qu",
      "ar"
    ],
    [
      "de",
      "f"
    ],
    [
      "S",
      "en"
    ],
    [
      "faul",
      "t"
    ],
    [
      "id",
      "es"
    ],
    [
      "qui",
      "ck"
    ],
    [
      "a",
      "ther"
    ],
    [
      "thought",
      "s"
    ],
    [
      "d",
      "are"
    ],
    [
      "to",
      "ward"
    ],
    [
      "en",
      "ch"
    ],
    [
      "su",
      "p"
    ],
    [
      "stra",
      "ight"
    ],
    [
      "sl",
      "ain"
    ],
    [
      "G",
      "l"
    ],
    [
      "F",
      "rance"
    ],
    [
      "ene",
      "my"
    ],
    [
      "o",
      "b"
    ],
    [
      "love",
      "d"
    ],
    [
      "su",
      "it"
    ],
    [
      "cour",
      "se"
    ],
    [
      "c",
      "al"
    ],
    [
      "r",
      "ue"
    ],
    [
      "gener",
      "al"
    ],
    [
      "mar",
      "k"
    ],
    [
      "at",
      "s"
    ],
    [
      "end",
      "s"
    ],
    [
      "M",
      "ess"
    ],
    [
      "Mess",
      "enger"
    ],
    [
      "AU",
      "F"
    ],
    [
      "AUF",
      "ID"
    ],
    [
      "AUFID",
      "IUS"
    ],
    [
      "pr",
      "ess"
    ],
    [
      "The",
      "se"
    ],
    [
      "al",
      "one"
    ],
    [
      "lo",
      "se"
    ],
    [
      "ch",
      "oo"
    ],
    [
      "op",
      "en"
    ],
    [
      "wor",
      "th"
    ],
    [
      "sa",
      "me"
    ],
    [
      "t",
      "ouch"
    ],
    [
      "p",
      "h"
    ],
    [
      "e",
      "cut"
    ],
    [
      "J",
      "o"
    ],
    [
      "le",
      "arn"
    ],
    [
      "f",
      "ol"
    ],
    [
      "bea",
      "uty"
    ],
    [
      "F",
      "L"
    ],
    [
      "FL",
      "OR"
    ],
    [
      "FLOR",
      "IZ"
    ],
    [
      "FLORIZ",
      "EL"
    ],
    [
      "f",
      "ur"
    ],
    [
      "reven",
      "ge"
    ],
    [
      "si",
      "de"
    ],
    [
      "a",
      "ct"
    ],
    [
      "b",
      "our"
    ],
    [
      "Se",
      "e"
    ],
    [
      "gr",
      "ant"
    ],
    [
      "br",
      "ought"
    ],
    [
      "pr",
      "of"
    ],
    [
      "hour",
      "s"
    ],
    [
      "i",
      "ed"
    ],
    [
      "c",
      "ro"
    ],
    [
      "tw",
      "enty"
    ],
    [
      "wi",
      "dow"
    ],
    [
      "ex",
      "ecut"
    ],
    [
      "b",
      "ir"
    ],
    [
      "S",
      "E"
    ],
    [
      "IO",
      "N"
    ],
    [
      "C",
      "lau"
    ],
    [
      "Clau",
      "di"
    ],
    [
      "Claudi",
      "o"
    ],
    [
      "wor",
      "k"
    ],
    [
      "ri",
      "ch"
    ],
    [
      "fe",
      "el"
    ],
    [
      "H",
      "a"
    ],
    [
      "re",
      "w"
    ],
    [
      "Sen",
      "ator"
    ],
    [
      "mo",
      "ck"
    ],
    [
      "mo",
      "ve"
    ],
    [
      "you",
      "th"
    ],
    [
      "M",
      "ad"
    ],
    [
      "Mad",
      "am"
    ],
    [
      "spe",
      "ed"
    ],
    [
      "know",
      "s"
    ],
    [
      "so",
      "m"
    ],
    [
      "um",
      "ber"
    ],
    [
      "it",
      "self"
    ],
    [
      "con",
      "su"
    ],
    [
      "conf",
      "ess"
    ],
    [
      "j",
      "ud"
    ],
    [
      "s",
      "es"
    ],
    [
      "b",
      "ow"
    ],
    [
      "can",
      "st"
    ],
    [
      "d",
      "uty"
    ],
    [
      "Gentle",
      "man"
    ],
    [
      "ER",
      "S"
    ],
    [
      "res",
      "ol"
    ],
    [
      "A",
      "gainst"
    ],
    [
      "C",
      "ap"
    ],
    [
      "b",
      "s"
    ],
    [
      "p",
      "ed"
    ],
    [
      "MAR",
      "C"
    ],
    [
      "MARC",
      "IUS"
    ],
    [
      "le",
      "ad"
    ],
    [
      "mar",
      "ri"
    ],
    [
      "ch",
      "o"
    ],
    [
      "comp",
      "any"
    ],
    [
      "v",
      "al"
    ],
    [
      "fi",
      "eld"
    ],
    [
      "b",
      "ound"
    ],
    [
      "che",
      "d"
    ],
    [
      "il",
      "s"
    ],
    [
      "stand",
      "s"
    ],
    [
      "coun",
      "ter"
    ],
    [
      "ser",
      "ve"
    ],
    [
      "D",
      "e"
    ],
    [
      "ple",
      "asure"
    ],
    [
      "d",
      "am"
    ],
    [
      "des",
      "ire"
    ],
    [
      "sa",
      "ke"
    ],
    [
      "wom",
      "en"
    ],
    [
      "Gl",
      "ou"
    ],
    [
      "Glou",
      "ce"
    ],
    [
      "ord",
      "er"
    ],
    [
      "M",
      "aster"
    ],
    [
      "Monta",
      "gue"
    ],
    [
      "u",
      "a"
    ],
    [
      "ill",
      "o"
    ],
    [
      "She",
      "pherd"
    ],
    [
      "SE",
      "BA"
    ],
    [
      "SEBA",
      "ST"
    ],
    [
      "SEBAST",
      "IAN"
    ],
    [
      "fe",
      "ction"
    ],
    [
      "coun",
      "sel"
    ],
    [
      "he",
      "s"
    ],
    [
      "ch",
      "ance"
    ],
    [
      "be",
      "hold"
    ],
    [
      "Th",
      "us"
    ],
    [
      "me",
      "t"
    ],
    [
      "heart",
      "s"
    ],
    [
      "he",
      "ll"
    ],
    [
      "g",
      "es"
    ],
    [
      "b",
      "urn"
    ],
    [
      "h",
      "arm"
    ],
    [
      "e",
      "ither"
    ],
    [
      "d",
      "ish"
    ],
    [
      "fear",
      "ful"
    ],
    [
      "m",
      "us"
    ],
    [
      "m",
      "urder"
    ],
    [
      "ing",
      "ham"
    ],
    [
      "M",
      "ON"
    ],
    [
      "O",
      "W"
    ],
    [
      "Cam",
      "illo"
    ],
    [
      "a",
      "u"
    ],
    [
      "s",
      "ur"
    ],
    [
      "ta",
      "le"
    ],
    [
      "be",
      "ll"
    ],
    [
      "f",
      "er"
    ],
    [
      "e",
      "ach"
    ],
    [
      "V",
      "ol"
    ],
    [
      "stri",
      "ke"
    ],
    [
      "v",
      "our"
    ],
    [
      "su",
      "c"
    ],
    [
      "sh",
      "ort"
    ],
    [
      "T",
      "ill"
    ],
    [
      "d",
      "ro"
    ],
    [
      "w",
      "ret"
    ],
    [
      "te",
      "st"
    ],
    [
      "ho",
      "t"
    ],
    [
      "lo",
      "ving"
    ],
    [
      "s",
      "at"
    ],
    [
      "i",
      "ci"
    ],
    [
      "Hast",
      "ings"
    ],
    [
      "Glouce",
      "ster"
    ],
    [
      "B",
      "uck"
    ],
    [
      "Buck",
      "ingham"
    ],
    [
      "marri",
      "age"
    ],
    [
      "B",
      "ION"
    ],
    [
      "BION",
      "D"
    ],
    [
      "BIOND",
      "EL"
    ],
    [
      "BIONDEL",
      "LO"
    ],
    [
      "at",
      "tend"
    ],
    [
      "pre",
      "t"
    ],
    [
      "deli",
      "ver"
    ],
    [
      "as",
      "h"
    ],
    [
      "d",
      "u"
    ],
    [
      "si",
      "ck"
    ],
    [
      "Vol",
      "s"
    ],
    [
      "A",
      "u"
    ],
    [
      "f",
      "id"
    ],
    [
      "w",
      "onder"
    ],
    [
      "mis",
      "s"
    ],
    [
      "we",
      "en"
    ],
    [
      "sa",
      "fe"
    ],
    [
      "w",
      "on"
    ],
    [
      "pati",
      "ence"
    ],
    [
      "c",
      "ri"
    ],
    [
      "gi",
      "ven"
    ],
    [
      "s",
      "ign"
    ],
    [
      "some",
      "thing"
    ],
    [
      "st",
      "u"
    ],
    [
      "ca",
      "st"
    ],
    [
      "m",
      "it"
    ],
    [
      "st",
      "o"
    ],
    [
      "vo",
      "ices"
    ],
    [
      "p",
      "ie"
    ],
    [
      "with",
      "al"
    ],
    [
      "ra",
      "h"
    ],
    [
      "high",
      "ness"
    ],
    [
      "gu",
      "il"
    ],
    [
      "C",
      "h"
    ],
    [
      "Nor",
      "fol"
    ],
    [
      "Norfol",
      "k"
    ],
    [
      "su",
      "ff"
    ],
    [
      "all",
      "y"
    ],
    [
      "r",
      "is"
    ],
    [
      "Ro",
      "man"
    ],
    [
      "fl",
      "atter"
    ],
    [
      "r",
      "ing"
    ],
    [
      "pa",
      "le"
    ],
    [
      "l",
      "s"
    ],
    [
      "str",
      "ength"
    ],
    [
      "w",
      "ast"
    ],
    [
      "too",
      "k"
    ],
    [
      "p",
      "ra"
    ],
    [
      "gentle",
      "men"
    ],
    [
      "in",
      "ed"
    ],
    [
      "lo",
      "ves"
    ],
    [
      "com",
      "ing"
    ],
    [
      "al",
      "th"
    ],
    [
      "We",
      "l"
    ],
    [
      "wi",
      "xt"
    ],
    [
      "p",
      "it"
    ],
    [
      "pose",
      "d"
    ],
    [
      "k",
      "n"
    ],
    [
      "heaven",
      "s"
    ],
    [
      "k",
      "new"
    ],
    [
      "w",
      "atch"
    ],
    [
      "did",
      "st"
    ],
    [
      "O",
      "P"
    ],
    [
      "H",
      "ER"
    ],
    [
      "c",
      "red"
    ],
    [
      "A",
      "UM"
    ],
    [
      "AUM",
      "ER"
    ],
    [
      "AUMER",
      "LE"
    ],
    [
      "Lu",
      "centio"
    ],
    [
      "ANT",
      "ON"
    ],
    [
      "ANTON",
      "IO"
    ],
    [
      "be",
      "come"
    ],
    [
      "g",
      "er"
    ],
    [
      "b",
      "ar"
    ],
    [
      "en",
      "em"
    ],
    [
      "enem",
      "ies"
    ],
    [
      "th",
      "ri"
    ],
    [
      "st",
      "ir"
    ],
    [
      "l",
      "ad"
    ],
    [
      "bra",
      "ve"
    ],
    [
      "po",
      "st"
    ],
    [
      "li",
      "ps"
    ],
    [
      "mor",
      "tal"
    ],
    [
      "ce",
      "pt"
    ],
    [
      "w",
      "ed"
    ],
    [
      "tem",
      "pt"
    ],
    [
      "h",
      "ood"
    ],
    [
      "L",
      "anca"
    ],
    [
      "Lanca",
      "ster"
    ],
    [
      "P",
      "o"
    ],
    [
      "Mar",
      "ry"
    ],
    [
      "B",
      "i"
    ],
    [
      "GON",
      "Z"
    ],
    [
      "GONZ",
      "ALO"
    ],
    [
      "suff",
      "er"
    ],
    [
      "is",
      "hed"
    ],
    [
      "Y",
      "e"
    ],
    [
      "ho",
      "p"
    ],
    [
      "b",
      "ly"
    ],
    [
      "on",
      "s"
    ],
    [
      "he",
      "ld"
    ],
    [
      "cer",
      "tain"
    ],
    [
      "see",
      "k"
    ],
    [
      "L",
      "ady"
    ],
    [
      "e",
      "per"
    ],
    [
      "g",
      "ates"
    ],
    [
      "soul",
      "s"
    ],
    [
      "than",
      "ks"
    ],
    [
      "ce",
      "d"
    ],
    [
      "co",
      "ver"
    ],
    [
      "po",
      "ss"
    ],
    [
      "ceive",
      "d"
    ],
    [
      "ci",
      "ent"
    ],
    [
      "M",
      "ost"
    ],
    [
      "wat",
      "er"
    ],
    [
      "a",
      "w"
    ],
    [
      "tit",
      "le"
    ],
    [
      "b",
      "ook"
    ],
    [
      "L",
      "o"
    ],
    [
      "a",
      "bo"
    ],
    [
      "ne",
      "xt"
    ],
    [
      "pro",
      "p"
    ],
    [
      "bre",
      "athe"
    ],
    [
      "P",
      "om"
    ],
    [
      "S",
      "A"
    ],
    [
      "Bi",
      "anca"
    ],
    [
      "ma",
      "in"
    ],
    [
      "m",
      "outh"
    ],
    [
      "B",
      "es"
    ],
    [
      "f",
      "our"
    ],
    [
      "them",
      "selves"
    ],
    [
      "b",
      "row"
    ],
    [
      "bre",
      "ast"
    ],
    [
      "P",
      "l"
    ],
    [
      "mer",
      "ry"
    ],
    [
      "gri",
      "e"
    ],
    [
      "con",
      "sent"
    ],
    [
      "of",
      "ten"
    ],
    [
      "po",
      "ison"
    ],
    [
      "w",
      "h"
    ],
    [
      "che",
      "e"
    ],
    [
      "g",
      "ave"
    ],
    [
      "ra",
      "ge"
    ],
    [
      "c",
      "ure"
    ],
    [
      "bo",
      "som"
    ],
    [
      "jo",
      "in"
    ],
    [
      "Al",
      "as"
    ],
    [
      "che",
      "er"
    ],
    [
      "T",
      "ran"
    ],
    [
      "Pet",
      "ru"
    ],
    [
      "CLIFF",
      "ORD"
    ],
    [
      "HER",
      "MIO"
    ],
    [
      "HERMIO",
      "NE"
    ],
    [
      "C",
      "LAU"
    ],
    [
      "CLAU",
      "D"
    ],
    [
      "CLAUD",
      "IO"
    ],
    [
      "fur",
      "ther"
    ],
    [
      "virt",
      "ue"
    ],
    [
      "M",
      "ake"
    ],
    [
      "ow",
      "ard"
    ],
    [
      "b",
      "unes"
    ],
    [
      "th",
      "row"
    ],
    [
      "Au",
      "fid"
    ],
    [
      "Aufid",
      "ius"
    ],
    [
      "Be",
      "ing"
    ],
    [
      "al",
      "ong"
    ],
    [
      "ere",
      "d"
    ],
    [
      "S",
      "ince"
    ],
    [
      "wor",
      "se"
    ],
    [
      "appe",
      "ar"
    ],
    [
      "t",
      "was"
    ],
    [
      "fo",
      "e"
    ],
    [
      "d",
      "den"
    ],
    [
      "C",
      "all"
    ],
    [
      "t",
      "were"
    ],
    [
      "w",
      "d"
    ],
    [
      "for",
      "get"
    ],
    [
      "end",
      "ed"
    ],
    [
      "t",
      "in"
    ],
    [
      "ed",
      "s"
    ],
    [
      "b",
      "lack"
    ],
    [
      "virt",
      "u"
    ],
    [
      "di",
      "v"
    ],
    [
      "d",
      "ing"
    ],
    [
      "k",
      "no"
    ],
    [
      "P",
      "er"
    ],
    [
      "we",
      "ak"
    ],
    [
      "ve",
      "l"
    ],
    [
      "t",
      "or"
    ],
    [
      "L",
      "ORD"
    ],
    [
      "J",
      "O"
    ],
    [
      "Tran",
      "io"
    ],
    [
      "Petru",
      "chi"
    ],
    [
      "Petruchi",
      "o"
    ],
    [
      "M",
      "I"
    ],
    [
      "MI",
      "RAN"
    ],
    [
      "MIRAN",
      "D"
    ],
    [
      "MIRAND",
      "A"
    ],
    [
      "S",
      "pe"
    ],
    [
      "al",
      "ready"
    ],
    [
      "us",
      "ur"
    ],
    [
      "ap",
      "p"
    ],
    [
      "bat",
      "tle"
    ],
    [
      "li",
      "ant"
    ],
    [
      "king",
      "s"
    ],
    [
      "s",
      "pr"
    ],
    [
      "is",
      "sue"
    ],
    [
      "f",
      "ir"
    ],
    [
      "l",
      "st"
    ],
    [
      "danger",
      "ous"
    ],
    [
      "b",
      "ad"
    ],
    [
      "a",
      "de"
    ],
    [
      "beg",
      "in"
    ],
    [
      "re",
      "quest"
    ],
    [
      "mor",
      "ning"
    ],
    [
      "wr",
      "it"
    ],
    [
      "offi",
      "ce"
    ],
    [
      "b",
      "ur"
    ],
    [
      "fl",
      "es"
    ],
    [
      "s",
      "k"
    ],
    [
      "li",
      "ber"
    ],
    [
      "r",
      "up"
    ],
    [
      "Here",
      "ford"
    ],
    [
      "sat",
      "is"
    ],
    [
      "JO",
      "H"
    ],
    [
      "JOH",
      "N"
    ],
    [
      "S",
      "ON"
    ],
    [
      "Be",
      "fore"
    ],
    [
      "p",
      "ay"
    ],
    [
      "way",
      "s"
    ],
    [
      "mi",
      "le"
    ],
    [
      "h",
      "ind"
    ],
    [
      "hi",
      "p"
    ],
    [
      "go",
      "es"
    ],
    [
      "then",
      "ce"
    ],
    [
      "bet",
      "ween"
    ],
    [
      "son",
      "s"
    ],
    [
      "bl",
      "ess"
    ],
    [
      "i",
      "er"
    ],
    [
      "ne",
      "ither"
    ],
    [
      "in",
      "ter"
    ],
    [
      "di",
      "re"
    ],
    [
      "fe",
      "ast"
    ],
    [
      "wound",
      "s"
    ],
    [
      "Cor",
      "i"
    ],
    [
      "Cori",
      "ol"
    ],
    [
      "Coriol",
      "an"
    ],
    [
      "Coriolan",
      "us"
    ],
    [
      "p",
      "al"
    ],
    [
      "Y",
      "es"
    ],
    [
      "Wel",
      "come"
    ],
    [
      "ser",
      "vant"
    ],
    [
      "tr",
      "ou"
    ],
    [
      "p",
      "lo"
    ],
    [
      "pati",
      "ent"
    ],
    [
      "f",
      "rown"
    ],
    [
      "c",
      "reat"
    ],
    [
      "poss",
      "ess"
    ],
    [
      "quar",
      "rel"
    ],
    [
      "soldi",
      "ers"
    ],
    [
      "ar",
      "ry"
    ],
    [
      "ca",
      "se"
    ],
    [
      "T",
      "ower"
    ],
    [
      "or",
      "ge"
    ],
    [
      "Rich",
      "m"
    ],
    [
      "Richm",
      "ond"
    ],
    [
      "a",
      "unt"
    ],
    [
      "Spe",
      "ak"
    ],
    [
      "al",
      "k"
    ],
    [
      "Be",
      "cause"
    ],
    [
      "ba",
      "se"
    ],
    [
      "si",
      "gh"
    ],
    [
      "me",
      "s"
    ],
    [
      "f",
      "ra"
    ],
    [
      "S",
      "uch"
    ],
    [
      "to",
      "wn"
    ],
    [
      "w",
      "he"
    ],
    [
      "si",
      "ble"
    ],
    [
      "ce",
      "ll"
    ],
    [
      "bri",
      "ef"
    ],
    [
      "spo",
      "ke"
    ],
    [
      "ow",
      "ers"
    ],
    [
      "M",
      "ust"
    ],
    [
      "c",
      "c"
    ],
    [
      "b",
      "la"
    ],
    [
      "vi",
      "ct"
    ],
    [
      "consu",
      "l"
    ],
    [
      "ha",
      "ving"
    ],
    [
      "vo",
      "ice"
    ],
    [
      "o",
      "d"
    ],
    [
      "su",
      "m"
    ],
    [
      "spe",
      "ech"
    ],
    [
      "di",
      "es"
    ],
    [
      "p",
      "ite"
    ],
    [
      "P",
      "e"
    ],
    [
      "r",
      "ough"
    ],
    [
      "Un",
      "less"
    ],
    [
      "pres",
      "ence"
    ],
    [
      "dre",
      "ad"
    ],
    [
      "off",
      "er"
    ],
    [
      "f",
      "res"
    ],
    [
      "un",
      "k"
    ],
    [
      "A",
      "r"
    ],
    [
      "Mar",
      "gar"
    ],
    [
      "Margar",
      "et"
    ],
    [
      "CA",
      "TES"
    ],
    [
      "CATES",
      "BY"
    ],
    [
      "m",
      "as"
    ],
    [
      "N",
      "T"
    ],
    [
      "A",
      "S"
    ],
    [
      "bri",
      "de"
    ],
    [
      "deed",
      "s"
    ],
    [
      "w",
      "ars"
    ],
    [
      "nat",
      "ur"
    ],
    [
      "The",
      "ir"
    ],
    [
      "u",
      "b"
    ],
    [
      "vi",
      "le"
    ],
    [
      "prom",
      "ise"
    ],
    [
      "li",
      "p"
    ],
    [
      "ac",
      "tion"
    ],
    [
      "r",
      "um"
    ],
    [
      "vis",
      "it"
    ],
    [
      "f",
      "ill"
    ],
    [
      "h",
      "ur"
    ],
    [
      "ll",
      "o"
    ],
    [
      "Bo",
      "th"
    ],
    [
      "cha",
      "mber"
    ],
    [
      "d",
      "ark"
    ],
    [
      "sc",
      "ar"
    ],
    [
      "Who",
      "m"
    ],
    [
      "den",
      "y"
    ],
    [
      "head",
      "s"
    ],
    [
      "c",
      "ol"
    ],
    [
      "K",
      "e"
    ],
    [
      "for",
      "ward"
    ],
    [
      "thr",
      "one"
    ],
    [
      "seem",
      "s"
    ],
    [
      "v",
      "ow"
    ],
    [
      "clo",
      "se"
    ],
    [
      "might",
      "y"
    ],
    [
      "S",
      "aint"
    ],
    [
      "GRE",
      "Y"
    ],
    [
      "ar",
      "l"
    ],
    [
      "L",
      "ond"
    ],
    [
      "Lond",
      "on"
    ],
    [
      "ar",
      "is"
    ],
    [
      "on",
      "a"
    ],
    [
      "B",
      "ap"
    ],
    [
      "Bap",
      "tis"
    ],
    [
      "s",
      "oft"
    ],
    [
      "ma",
      "st"
    ],
    [
      "m",
      "b"
    ],
    [
      "um",
      "pet"
    ],
    [
      "h",
      "ar"
    ],
    [
      "s",
      "wi"
    ],
    [
      "so",
      "l"
    ],
    [
      "mo",
      "on"
    ],
    [
      "E",
      "re"
    ],
    [
      "ment",
      "s"
    ],
    [
      "e",
      "th"
    ],
    [
      "pray",
      "ers"
    ],
    [
      "bu",
      "y"
    ],
    [
      "su",
      "dden"
    ],
    [
      "tre",
      "m"
    ],
    [
      "vi",
      "ol"
    ],
    [
      "M",
      "is"
    ],
    [
      "full",
      "y"
    ],
    [
      "was",
      "h"
    ],
    [
      "prince",
      "ly"
    ],
    [
      "st",
      "ain"
    ],
    [
      "ma",
      "g"
    ],
    [
      "g",
      "ing"
    ],
    [
      "um",
      "ph"
    ],
    [
      "ion",
      "s"
    ],
    [
      "an",
      "cient"
    ],
    [
      "ur",
      "ch"
    ],
    [
      "id",
      "ed"
    ],
    [
      "cl",
      "ou"
    ],
    [
      "wor",
      "ship"
    ],
    [
      "res",
      "pect"
    ],
    [
      "b",
      "ury"
    ],
    [
      "L",
      "est"
    ],
    [
      "s",
      "al"
    ],
    [
      "re",
      "g"
    ],
    [
      "ch",
      "ang"
    ],
    [
      "G",
      "e"
    ],
    [
      "Ge",
      "orge"
    ],
    [
      "BR",
      "A"
    ],
    [
      "go",
      "ver"
    ],
    [
      "R",
      "IV"
    ],
    [
      "RIV",
      "ERS"
    ],
    [
      "bit",
      "ter"
    ],
    [
      "M",
      "er"
    ],
    [
      "P",
      "aris"
    ],
    [
      "BA",
      "L"
    ],
    [
      "I",
      "sa"
    ],
    [
      "B",
      "IAN"
    ],
    [
      "BIAN",
      "CA"
    ],
    [
      "Baptis",
      "ta"
    ],
    [
      "coun",
      "t"
    ],
    [
      "e",
      "at"
    ],
    [
      "u",
      "ct"
    ],
    [
      "se",
      "at"
    ],
    [
      "anta",
      "ge"
    ],
    [
      "c",
      "oward"
    ],
    [
      "va",
      "liant"
    ],
    [
      "suc",
      "cess"
    ],
    [
      "e",
      "w"
    ],
    [
      "fet",
      "ch"
    ],
    [
      "sla",
      "ve"
    ],
    [
      "T",
      "ho"
    ],
    [
      "hi",
      "de"
    ],
    [
      "ple",
      "as"
    ],
    [
      "fa",
      "vour"
    ],
    [
      "re",
      "ver"
    ],
    [
      "tri",
      "umph"
    ],
    [
      "e",
      "as"
    ],
    [
      "i",
      "an"
    ],
    [
      "fles",
      "h"
    ],
    [
      "sc",
      "orn"
    ],
    [
      "St",
      "and"
    ],
    [
      "g",
      "all"
    ],
    [
      "present",
      "ly"
    ],
    [
      "law",
      "ful"
    ],
    [
      "cro",
      "ss"
    ],
    [
      "lam",
      "ent"
    ],
    [
      "mus",
      "ic"
    ],
    [
      "wit",
      "ness"
    ],
    [
      "one",
      "y"
    ],
    [
      "a",
      "ck"
    ],
    [
      "ti",
      "l"
    ],
    [
      "P",
      "a"
    ],
    [
      "ure",
      "d"
    ],
    [
      "Nor",
      "th"
    ],
    [
      "pr",
      "in"
    ],
    [
      "G",
      "AU"
    ],
    [
      "GAU",
      "NT"
    ],
    [
      "ort",
      "en"
    ],
    [
      "EL",
      "B"
    ],
    [
      "ELB",
      "OW"
    ],
    [
      "faul",
      "ts"
    ],
    [
      "ge",
      "st"
    ],
    [
      "al",
      "most"
    ],
    [
      "tri",
      "bunes"
    ],
    [
      "st",
      "ant"
    ],
    [
      "mo",
      "ved"
    ],
    [
      "i",
      "ck"
    ],
    [
      "p",
      "atch"
    ],
    [
      "a",
      "ven"
    ],
    [
      "i",
      "fe"
    ],
    [
      "e",
      "ase"
    ],
    [
      "pri",
      "thee"
    ],
    [
      "H",
      "ark"
    ],
    [
      "s",
      "per"
    ],
    [
      "i",
      "le"
    ],
    [
      "H",
      "old"
    ],
    [
      "will",
      "ing"
    ],
    [
      "p",
      "ort"
    ],
    [
      "dem",
      "n"
    ],
    [
      "o",
      "cc"
    ],
    [
      "le",
      "ast"
    ],
    [
      "ap",
      "pro"
    ],
    [
      "f",
      "ond"
    ],
    [
      "qui",
      "et"
    ],
    [
      "n",
      "ay"
    ],
    [
      "O",
      "x"
    ],
    [
      "k",
      "ins"
    ],
    [
      "b",
      "oo"
    ],
    [
      "T",
      "Y"
    ],
    [
      "MON",
      "TA"
    ],
    [
      "MONTA",
      "G"
    ],
    [
      "MONTAG",
      "UE"
    ],
    [
      "H",
      "orten"
    ],
    [
      "Horten",
      "si"
    ],
    [
      "Hortensi",
      "o"
    ],
    [
      "ti",
      "c"
    ],
    [
      "ma",
      "li"
    ],
    [
      "ci",
      "ence"
    ],
    [
      "pret",
      "ty"
    ],
    [
      "m",
      "id"
    ],
    [
      "sm",
      "all"
    ],
    [
      "l",
      "ow"
    ],
    [
      "st",
      "or"
    ],
    [
      "def",
      "end"
    ],
    [
      "th",
      "ither"
    ],
    [
      "c",
      "en"
    ],
    [
      "b",
      "or"
    ],
    [
      "bra",
      "ce"
    ],
    [
      "di",
      "ed"
    ],
    [
      "fe",
      "it"
    ],
    [
      "l",
      "ar"
    ],
    [
      "w",
      "arm"
    ],
    [
      "go",
      "d"
    ],
    [
      "t",
      "une"
    ],
    [
      "a",
      "id"
    ],
    [
      "ak",
      "ed"
    ],
    [
      "ch",
      "er"
    ],
    [
      "be",
      "ast"
    ],
    [
      "k",
      "ed"
    ],
    [
      "subject",
      "s"
    ],
    [
      "d",
      "le"
    ],
    [
      "g",
      "ent"
    ],
    [
      "execut",
      "ion"
    ],
    [
      "m",
      "atch"
    ],
    [
      "Pe",
      "ace"
    ],
    [
      "St",
      "ay"
    ],
    [
      "fi",
      "e"
    ],
    [
      "oo",
      "th"
    ],
    [
      "fi",
      "ed"
    ],
    [
      "Ye",
      "a"
    ],
    [
      "sla",
      "ughter"
    ],
    [
      "le",
      "y"
    ],
    [
      "king",
      "dom"
    ],
    [
      "North",
      "umber"
    ],
    [
      "Northumber",
      "land"
    ],
    [
      "de",
      "part"
    ],
    [
      "Do",
      "th"
    ],
    [
      "Ox",
      "ford"
    ],
    [
      "ba",
      "wd"
    ],
    [
      "Bo",
      "he"
    ],
    [
      "Bohe",
      "mi"
    ],
    [
      "Pom",
      "pe"
    ],
    [
      "Pompe",
      "y"
    ],
    [
      "K",
      "ath"
    ],
    [
      "Kath",
      "ar"
    ],
    [
      "Kathar",
      "ina"
    ],
    [
      "pro",
      "ceed"
    ],
    [
      "s",
      "land"
    ],
    [
      "soldi",
      "er"
    ],
    [
      "tr",
      "umpet"
    ],
    [
      "a",
      "while"
    ],
    [
      "off",
      "ence"
    ],
    [
      "in",
      "es"
    ],
    [
      "gl",
      "ad"
    ],
    [
      "v",
      "ol"
    ],
    [
      "gu",
      "ard"
    ],
    [
      "when",
      "ce"
    ],
    [
      "hear",
      "ing"
    ],
    [
      "VI",
      "R"
    ],
    [
      "VIR",
      "G"
    ],
    [
      "VIRG",
      "IL"
    ],
    [
      "VIRGIL",
      "IA"
    ],
    [
      "S",
      "we"
    ],
    [
      "Swe",
      "et"
    ],
    [
      "te",
      "ar"
    ],
    [
      "le",
      "ct"
    ],
    [
      "quick",
      "ly"
    ],
    [
      "dr",
      "ink"
    ],
    [
      "ri",
      "d"
    ],
    [
      "per",
      "ate"
    ],
    [
      "led",
      "ge"
    ],
    [
      "virtu",
      "ous"
    ],
    [
      "pie",
      "ce"
    ],
    [
      "dish",
      "onour"
    ],
    [
      "obe",
      "di"
    ],
    [
      "in",
      "no"
    ],
    [
      "good",
      "ly"
    ],
    [
      "wi",
      "ld"
    ],
    [
      "mi",
      "ld"
    ],
    [
      "had",
      "st"
    ],
    [
      "bir",
      "th"
    ],
    [
      "kno",
      "ck"
    ],
    [
      "fres",
      "h"
    ],
    [
      "li",
      "ving"
    ],
    [
      "y",
      "ear"
    ],
    [
      "gre",
      "et"
    ],
    [
      "Pa",
      "ul"
    ],
    [
      "gover",
      "n"
    ],
    [
      "E",
      "x"
    ],
    [
      "wer",
      "t"
    ],
    [
      "A",
      "T"
    ],
    [
      "Bohemi",
      "a"
    ],
    [
      "PER",
      "D"
    ],
    [
      "PERD",
      "I"
    ],
    [
      "PERDI",
      "TA"
    ],
    [
      "ER",
      "D"
    ],
    [
      "I",
      "EL"
    ],
    [
      "c",
      "orn"
    ],
    [
      "th",
      "or"
    ],
    [
      "h",
      "un"
    ],
    [
      "pi",
      "er"
    ],
    [
      "af",
      "fection"
    ],
    [
      "natur",
      "al"
    ],
    [
      "li",
      "c"
    ],
    [
      "wor",
      "st"
    ],
    [
      "ti",
      "es"
    ],
    [
      "bl",
      "ing"
    ],
    [
      "great",
      "er"
    ],
    [
      "g",
      "ir"
    ],
    [
      "per",
      "form"
    ],
    [
      "s",
      "ort"
    ],
    [
      "dr",
      "um"
    ],
    [
      "kne",
      "e"
    ],
    [
      "ne",
      "ck"
    ],
    [
      "m",
      "ir"
    ],
    [
      "ke",
      "t"
    ],
    [
      "do",
      "ing"
    ],
    [
      "ust",
      "om"
    ],
    [
      "ang",
      "ry"
    ],
    [
      "st",
      "ood"
    ],
    [
      "u",
      "es"
    ],
    [
      "bl",
      "ows"
    ],
    [
      "deser",
      "ved"
    ],
    [
      "z",
      "ed"
    ],
    [
      "r",
      "or"
    ],
    [
      "f",
      "led"
    ],
    [
      "me",
      "asure"
    ],
    [
      "trou",
      "ble"
    ],
    [
      "con",
      "tin"
    ],
    [
      "re",
      "ck"
    ],
    [
      "tre",
      "ason"
    ],
    [
      "oo",
      "p"
    ],
    [
      "ast",
      "ard"
    ],
    [
      "banish",
      "ment"
    ],
    [
      "ch",
      "urch"
    ],
    [
      "ak",
      "es"
    ],
    [
      "weep",
      "ing"
    ],
    [
      "c",
      "ord"
    ],
    [
      "pos",
      "sible"
    ],
    [
      "kind",
      "ness"
    ],
    [
      "kne",
      "el"
    ],
    [
      "n",
      "y"
    ],
    [
      "le",
      "is"
    ],
    [
      "leis",
      "ure"
    ],
    [
      "guil",
      "ty"
    ],
    [
      "l",
      "ish"
    ],
    [
      "c",
      "li"
    ],
    [
      "land",
      "s"
    ],
    [
      "Isa",
      "bel"
    ],
    [
      "MAR",
      "IAN"
    ],
    [
      "MARIAN",
      "A"
    ],
    [
      "S",
      "L"
    ],
    [
      "SL",
      "Y"
    ],
    [
      "m",
      "io"
    ],
    [
      "c",
      "itizen"
    ],
    [
      "do",
      "g"
    ],
    [
      "cons",
      "cience"
    ],
    [
      "sp",
      "ort"
    ],
    [
      "m",
      "ut"
    ],
    [
      "speak",
      "s"
    ],
    [
      "e",
      "vil"
    ],
    [
      "as",
      "ide"
    ],
    [
      "be",
      "hind"
    ],
    [
      "F",
      "a"
    ],
    [
      "let",
      "ter"
    ],
    [
      "need",
      "s"
    ],
    [
      "z",
      "en"
    ],
    [
      "lad",
      "ies"
    ],
    [
      "f",
      "ine"
    ],
    [
      "f",
      "ing"
    ],
    [
      "obe",
      "y"
    ],
    [
      "P",
      "ri"
    ],
    [
      "so",
      "le"
    ],
    [
      "mar",
      "ch"
    ],
    [
      "bl",
      "ow"
    ],
    [
      "A",
      "m"
    ],
    [
      "no",
      "ise"
    ],
    [
      "se",
      "cond"
    ],
    [
      "d",
      "ar"
    ],
    [
      "b",
      "ig"
    ],
    [
      "she",
      "pherd"
    ],
    [
      "pos",
      "ition"
    ],
    [
      "show",
      "s"
    ],
    [
      "le",
      "ase"
    ],
    [
      "d",
      "oo"
    ],
    [
      "con",
      "demn"
    ],
    [
      "prison",
      "er"
    ],
    [
      "would",
      "st"
    ],
    [
      "in",
      "f"
    ],
    [
      "let",
      "ters"
    ],
    [
      "f",
      "ive"
    ],
    [
      "Whi",
      "le"
    ],
    [
      "lo",
      "ck"
    ],
    [
      "k",
      "er"
    ],
    [
      "di",
      "g"
    ],
    [
      "sen",
      "se"
    ],
    [
      "our",
      "selves"
    ],
    [
      "liber",
      "ty"
    ],
    [
      "se",
      "al"
    ],
    [
      "W",
      "atch"
    ],
    [
      "ign",
      "or"
    ],
    [
      "A",
      "f"
    ],
    [
      "st",
      "re"
    ],
    [
      "clou",
      "ds"
    ],
    [
      "O",
      "ut"
    ],
    [
      "for",
      "bid"
    ],
    [
      "pe",
      "st"
    ],
    [
      "beg",
      "gar"
    ],
    [
      "sent",
      "ence"
    ],
    [
      "as",
      "sa"
    ],
    [
      "be",
      "cause"
    ],
    [
      "B",
      "l"
    ],
    [
      "Sir",
      "rah"
    ],
    [
      "gr",
      "and"
    ],
    [
      "et",
      "er"
    ],
    [
      "se",
      "c"
    ],
    [
      "bro",
      "ad"
    ],
    [
      "re",
      "ign"
    ],
    [
      "sle",
      "w"
    ],
    [
      "Pl",
      "anta"
    ],
    [
      "Planta",
      "gen"
    ],
    [
      "Plantagen",
      "et"
    ],
    [
      "s",
      "us"
    ],
    [
      "usur",
      "p"
    ],
    [
      "Eng",
      "lish"
    ],
    [
      "um",
      "ent"
    ],
    [
      "P",
      "AR"
    ],
    [
      "PAR",
      "IS"
    ],
    [
      "P",
      "ad"
    ],
    [
      "Pad",
      "ua"
    ],
    [
      "Gre",
      "mio"
    ],
    [
      "G",
      "rum"
    ],
    [
      "Grum",
      "io"
    ],
    [
      "id",
      "er"
    ],
    [
      "M",
      "en"
    ],
    [
      "mast",
      "ers"
    ],
    [
      "sland",
      "er"
    ],
    [
      "c",
      "ing"
    ],
    [
      "a",
      "le"
    ],
    [
      "w",
      "alk"
    ],
    [
      "at",
      "ors"
    ],
    [
      "qu",
      "o"
    ],
    [
      "fri",
      "ght"
    ],
    [
      "st",
      "one"
    ],
    [
      "se",
      "ver"
    ],
    [
      "T",
      "oo"
    ],
    [
      "dis",
      "patch"
    ],
    [
      "wom",
      "b"
    ],
    [
      "V",
      "er"
    ],
    [
      "h",
      "und"
    ],
    [
      "hund",
      "red"
    ],
    [
      "y",
      "ond"
    ],
    [
      "ve",
      "y"
    ],
    [
      "il",
      "es"
    ],
    [
      "she",
      "d"
    ],
    [
      "F",
      "ear"
    ],
    [
      "con",
      "ce"
    ],
    [
      "it",
      "ies"
    ],
    [
      "not",
      "e"
    ],
    [
      "c",
      "ried"
    ],
    [
      "sp",
      "ur"
    ],
    [
      "pro",
      "sper"
    ],
    [
      "vict",
      "ory"
    ],
    [
      "le",
      "a"
    ],
    [
      "live",
      "d"
    ],
    [
      "man",
      "ner"
    ],
    [
      "D",
      "is"
    ],
    [
      "d",
      "ry"
    ],
    [
      "pl",
      "ant"
    ],
    [
      "qu",
      "it"
    ],
    [
      "k",
      "in"
    ],
    [
      "f",
      "at"
    ],
    [
      "u",
      "al"
    ],
    [
      "Th",
      "ink"
    ],
    [
      "en",
      "ess"
    ],
    [
      "la",
      "id"
    ],
    [
      "choo",
      "se"
    ],
    [
      "b",
      "ones"
    ],
    [
      "l",
      "p"
    ],
    [
      "swi",
      "ft"
    ],
    [
      "gl",
      "ass"
    ],
    [
      "abo",
      "ve"
    ],
    [
      "ban",
      "ished"
    ],
    [
      "st",
      "op"
    ],
    [
      "v",
      "ain"
    ],
    [
      "fe",
      "w"
    ],
    [
      "sec",
      "ret"
    ],
    [
      "dam",
      "n"
    ],
    [
      "gold",
      "en"
    ],
    [
      "long",
      "er"
    ],
    [
      "Ch",
      "ris"
    ],
    [
      "dr",
      "unk"
    ],
    [
      "G",
      "aunt"
    ],
    [
      "PET",
      "ER"
    ],
    [
      "P",
      "ed"
    ],
    [
      "citizen",
      "s"
    ],
    [
      "ul",
      "ar"
    ],
    [
      "to",
      "l"
    ],
    [
      "W",
      "or"
    ],
    [
      "your",
      "selves"
    ],
    [
      "kne",
      "es"
    ],
    [
      "la",
      "bour"
    ],
    [
      "Un",
      "to"
    ],
    [
      "s",
      "ca"
    ],
    [
      "nd",
      "er"
    ],
    [
      "in",
      "ius"
    ],
    [
      "c",
      "r"
    ],
    [
      "sha",
      "dow"
    ],
    [
      "il",
      "t"
    ],
    [
      "p",
      "hy"
    ],
    [
      "ex",
      "c"
    ],
    [
      "L",
      "AR"
    ],
    [
      "LAR",
      "T"
    ],
    [
      "LART",
      "IUS"
    ],
    [
      "u",
      "ction"
    ],
    [
      "ad",
      "d"
    ],
    [
      "pro",
      "of"
    ],
    [
      "dou",
      "ble"
    ],
    [
      "en",
      "counter"
    ],
    [
      "th",
      "reat"
    ],
    [
      "d",
      "ge"
    ],
    [
      "u",
      "ri"
    ],
    [
      "ef",
      "fect"
    ],
    [
      "ste",
      "el"
    ],
    [
      "ho",
      "st"
    ],
    [
      "for",
      "got"
    ],
    [
      "wear",
      "y"
    ],
    [
      "pri",
      "de"
    ],
    [
      "as",
      "ion"
    ],
    [
      "ur",
      "es"
    ],
    [
      "o",
      "t"
    ],
    [
      "ven",
      "ge"
    ],
    [
      "know",
      "ledge"
    ],
    [
      "d",
      "in"
    ],
    [
      "pre",
      "cious"
    ],
    [
      "er",
      "le"
    ],
    [
      "Citizen",
      "s"
    ],
    [
      "m",
      "oun"
    ],
    [
      "C",
      "ould"
    ],
    [
      "toward",
      "s"
    ],
    [
      "ol",
      "er"
    ],
    [
      "wi",
      "ce"
    ],
    [
      "be",
      "ars"
    ],
    [
      "an",
      "ces"
    ],
    [
      "E",
      "n"
    ],
    [
      "ha",
      "p"
    ],
    [
      "li",
      "est"
    ],
    [
      "des",
      "pair"
    ],
    [
      "a",
      "king"
    ],
    [
      "qu",
      "ite"
    ],
    [
      "bles",
      "sed"
    ],
    [
      "enter",
      "tain"
    ],
    [
      "F",
      "ri"
    ],
    [
      "f",
      "ru"
    ],
    [
      "gl",
      "ory"
    ],
    [
      "lords",
      "hip"
    ],
    [
      "D",
      "OR"
    ],
    [
      "C",
      "ates"
    ],
    [
      "Cates",
      "by"
    ],
    [
      "d",
      "rown"
    ],
    [
      "des",
      "perate"
    ],
    [
      "wo",
      "es"
    ],
    [
      "kins",
      "man"
    ],
    [
      "ard",
      "en"
    ],
    [
      "l",
      "ust"
    ],
    [
      "a",
      "il"
    ],
    [
      "E",
      "arl"
    ],
    [
      "br",
      "ay"
    ],
    [
      "Cap",
      "u"
    ],
    [
      "Capu",
      "let"
    ],
    [
      "Watch",
      "man"
    ],
    [
      "w",
      "ain"
    ],
    [
      "LE",
      "W"
    ],
    [
      "LEW",
      "IS"
    ],
    [
      "X",
      "I"
    ],
    [
      "AR",
      "IEL"
    ],
    [
      "au",
      "thor"
    ],
    [
      "gu",
      "ess"
    ],
    [
      "u",
      "de"
    ],
    [
      "ation",
      "s"
    ],
    [
      "ne",
      "igh"
    ],
    [
      "re",
      "main"
    ],
    [
      "p",
      "or"
    ],
    [
      "quo",
      "th"
    ],
    [
      "b",
      "en"
    ],
    [
      "ir",
      "es"
    ],
    [
      "f",
      "ought"
    ],
    [
      "un",
      "ts"
    ],
    [
      "g",
      "rown"
    ],
    [
      "ad",
      "s"
    ],
    [
      "honour",
      "s"
    ],
    [
      "pre",
      "par"
    ],
    [
      "ar",
      "my"
    ],
    [
      "ta",
      "ble"
    ],
    [
      "c",
      "rue"
    ],
    [
      "ha",
      "ir"
    ],
    [
      "hi",
      "re"
    ],
    [
      "s",
      "choo"
    ],
    [
      "With",
      "in"
    ],
    [
      "A",
      "d"
    ],
    [
      "p",
      "es"
    ],
    [
      "sha",
      "ke"
    ],
    [
      "fool",
      "ish"
    ],
    [
      "str",
      "uck"
    ],
    [
      "doo",
      "m"
    ],
    [
      "cl",
      "am"
    ],
    [
      "dead",
      "ly"
    ],
    [
      "se",
      "ven"
    ],
    [
      "wh",
      "ite"
    ],
    [
      "chee",
      "ks"
    ],
    [
      "in",
      "king"
    ],
    [
      "Fa",
      "ith"
    ],
    [
      "de",
      "ter"
    ],
    [
      "g",
      "ment"
    ],
    [
      "ke",
      "pt"
    ],
    [
      "fir",
      "m"
    ],
    [
      "it",
      "ors"
    ],
    [
      "ound",
      "s"
    ],
    [
      "m",
      "end"
    ],
    [
      "b",
      "astard"
    ],
    [
      "all",
      "ow"
    ],
    [
      "go",
      "ing"
    ],
    [
      "con",
      "tr"
    ],
    [
      "are",
      "st"
    ],
    [
      "gue",
      "st"
    ],
    [
      "si",
      "m"
    ],
    [
      "m",
      "oney"
    ],
    [
      "A",
      "b"
    ],
    [
      "at",
      "ed"
    ],
    [
      "under",
      "stand"
    ],
    [
      "s",
      "our"
    ],
    [
      "d",
      "ance"
    ],
    [
      "en",
      "joy"
    ],
    [
      "fl",
      "owers"
    ],
    [
      "P",
      "ardon"
    ],
    [
      "m",
      "our"
    ],
    [
      "B",
      "ro"
    ],
    [
      "w",
      "ench"
    ],
    [
      "wret",
      "ched"
    ],
    [
      "a",
      "live"
    ],
    [
      "ste",
      "al"
    ],
    [
      "sp",
      "ent"
    ],
    [
      "ma",
      "ge"
    ],
    [
      "me",
      "thinks"
    ],
    [
      "Jo",
      "h"
    ],
    [
      "Joh",
      "n"
    ],
    [
      "prom",
      "ised"
    ],
    [
      "pro",
      "claim"
    ],
    [
      "M",
      "ow"
    ],
    [
      "Mow",
      "bray"
    ],
    [
      "A",
      "um"
    ],
    [
      "Aum",
      "erle"
    ],
    [
      "Ke",
      "eper"
    ],
    [
      "SA",
      "M"
    ],
    [
      "SAM",
      "P"
    ],
    [
      "SAMP",
      "SON"
    ],
    [
      "CU",
      "R"
    ],
    [
      "CUR",
      "TIS"
    ],
    [
      "Ped",
      "ant"
    ],
    [
      "h",
      "u"
    ],
    [
      "T",
      "rue"
    ],
    [
      "su",
      "pp"
    ],
    [
      "E",
      "ither"
    ],
    [
      "min",
      "ister"
    ],
    [
      "r",
      "ise"
    ],
    [
      "il",
      "ity"
    ],
    [
      "val",
      "our"
    ],
    [
      "qu",
      "al"
    ],
    [
      "d",
      "ain"
    ],
    [
      "c",
      "ir"
    ],
    [
      "crue",
      "l"
    ],
    [
      "H",
      "ear"
    ],
    [
      "He",
      "aven"
    ],
    [
      "fe",
      "ll"
    ],
    [
      "schoo",
      "l"
    ],
    [
      "whe",
      "ther"
    ],
    [
      "ne",
      "st"
    ],
    [
      "do",
      "or"
    ],
    [
      "st",
      "ro"
    ],
    [
      "um",
      "b"
    ],
    [
      "wret",
      "ch"
    ],
    [
      "tru",
      "ly"
    ],
    [
      "ro",
      "t"
    ],
    [
      "ne",
      "y"
    ],
    [
      "s",
      "y"
    ],
    [
      "ar",
      "ing"
    ],
    [
      "honour",
      "able"
    ],
    [
      "he",
      "alth"
    ],
    [
      "am",
      "ong"
    ],
    [
      "bl",
      "ind"
    ],
    [
      "in",
      "j"
    ],
    [
      "si",
      "x"
    ],
    [
      "te",
      "en"
    ],
    [
      "P",
      "ut"
    ],
    [
      "jud",
      "ge"
    ],
    [
      "M",
      "ine"
    ],
    [
      "v",
      "ate"
    ],
    [
      "wis",
      "dom"
    ],
    [
      "call",
      "s"
    ],
    [
      "hum",
      "ble"
    ],
    [
      "ar",
      "ri"
    ],
    [
      "offi",
      "cer"
    ],
    [
      "dem",
      "and"
    ],
    [
      "se",
      "iz"
    ],
    [
      "scar",
      "ce"
    ],
    [
      "b",
      "end"
    ],
    [
      "te",
      "ach"
    ],
    [
      "et",
      "s"
    ],
    [
      "mon",
      "th"
    ],
    [
      "bid",
      "s"
    ],
    [
      "sum",
      "mer"
    ],
    [
      "le",
      "st"
    ],
    [
      "or",
      "ious"
    ],
    [
      "st",
      "ars"
    ],
    [
      "ti",
      "de"
    ],
    [
      "her",
      "self"
    ],
    [
      "char",
      "ity"
    ],
    [
      "y",
      "al"
    ],
    [
      "dream",
      "s"
    ],
    [
      "kind",
      "red"
    ],
    [
      "B",
      "U"
    ],
    [
      "BU",
      "RY"
    ],
    [
      "Po",
      "or"
    ],
    [
      "brother",
      "s"
    ],
    [
      "d",
      "ue"
    ],
    [
      "ear",
      "ly"
    ],
    [
      "satis",
      "fied"
    ],
    [
      "de",
      "put"
    ],
    [
      "sub",
      "st"
    ],
    [
      "n",
      "s"
    ],
    [
      "f",
      "fi"
    ],
    [
      "E",
      "X"
    ],
    [
      "Mer",
      "cut"
    ],
    [
      "Mercut",
      "io"
    ],
    [
      "ci",
      "o"
    ],
    [
      "ici",
      "an"
    ],
    [
      "A",
      "po"
    ],
    [
      "Le",
      "wis"
    ],
    [
      "ANT",
      "I"
    ],
    [
      "ANTI",
      "GON"
    ],
    [
      "ANTIGON",
      "US"
    ],
    [
      "ci",
      "ans"
    ],
    [
      "A",
      "lack"
    ],
    [
      "vent",
      "ure"
    ],
    [
      "id",
      "le"
    ],
    [
      "de",
      "v"
    ],
    [
      "se",
      "m"
    ],
    [
      "b",
      "b"
    ],
    [
      "u",
      "me"
    ],
    [
      "wall",
      "s"
    ],
    [
      "va",
      "il"
    ],
    [
      "Vols",
      "ces"
    ],
    [
      "en",
      "vy"
    ],
    [
      "part",
      "y"
    ],
    [
      "Com",
      "inius"
    ],
    [
      "n",
      "ers"
    ],
    [
      "B",
      "et"
    ],
    [
      "hi",
      "e"
    ],
    [
      "please",
      "d"
    ],
    [
      "vi",
      "ew"
    ],
    [
      "el",
      "s"
    ],
    [
      "con",
      "vey"
    ],
    [
      "r",
      "on"
    ],
    [
      "cha",
      "se"
    ],
    [
      "force",
      "d"
    ],
    [
      "other",
      "s"
    ],
    [
      "N",
      "ever"
    ],
    [
      "M",
      "ade"
    ],
    [
      "ye",
      "a"
    ],
    [
      "cond",
      "ition"
    ],
    [
      "pri",
      "est"
    ],
    [
      "c",
      "ustom"
    ],
    [
      "de",
      "al"
    ],
    [
      "bla",
      "me"
    ],
    [
      "mali",
      "ce"
    ],
    [
      "th",
      "ir"
    ],
    [
      "K",
      "now"
    ],
    [
      "lau",
      "gh"
    ],
    [
      "quest",
      "ion"
    ],
    [
      "venge",
      "ance"
    ],
    [
      "where",
      "fore"
    ],
    [
      "S",
      "how"
    ],
    [
      "On",
      "ce"
    ],
    [
      "B",
      "id"
    ],
    [
      "pri",
      "vate"
    ],
    [
      "cra",
      "ve"
    ],
    [
      "an",
      "on"
    ],
    [
      "jud",
      "gment"
    ],
    [
      "fo",
      "es"
    ],
    [
      "p",
      "un"
    ],
    [
      "T",
      "was"
    ],
    [
      "am",
      "ent"
    ],
    [
      "tri",
      "al"
    ],
    [
      "ang",
      "u"
    ],
    [
      "th",
      "ro"
    ],
    [
      "cl",
      "es"
    ],
    [
      "wa",
      "il"
    ],
    [
      "fa",
      "int"
    ],
    [
      "a",
      "vo"
    ],
    [
      "d",
      "well"
    ],
    [
      "ul",
      "t"
    ],
    [
      "n",
      "i"
    ],
    [
      "d",
      "ur"
    ],
    [
      "p",
      "are"
    ],
    [
      "al",
      "ous"
    ],
    [
      "ar",
      "ch"
    ],
    [
      "lo",
      "yal"
    ],
    [
      "win",
      "ter"
    ],
    [
      "prop",
      "he"
    ],
    [
      "on",
      "y"
    ],
    [
      "a",
      "broad"
    ],
    [
      "mis",
      "er"
    ],
    [
      "creat",
      "ure"
    ],
    [
      "in",
      "ing"
    ],
    [
      "if",
      "ul"
    ],
    [
      "there",
      "of"
    ],
    [
      "m",
      "al"
    ],
    [
      "b",
      "right"
    ],
    [
      "spr",
      "ing"
    ],
    [
      "e",
      "em"
    ],
    [
      "ac",
      "le"
    ],
    [
      "sh",
      "rew"
    ],
    [
      "R",
      "AT"
    ],
    [
      "RAT",
      "CLIFF"
    ],
    [
      "H",
      "arry"
    ],
    [
      "fl",
      "ower"
    ],
    [
      "M",
      "us"
    ],
    [
      "pro",
      "vost"
    ],
    [
      "af",
      "f"
    ],
    [
      "vi",
      "ces"
    ],
    [
      "ac",
      "count"
    ],
    [
      "ll",
      "y"
    ],
    [
      "content",
      "ed"
    ],
    [
      "se",
      "ll"
    ],
    [
      "for",
      "mer"
    ],
    [
      "D",
      "es"
    ],
    [
      "r",
      "ust"
    ],
    [
      "U",
      "nder"
    ],
    [
      "me",
      "at"
    ],
    [
      "mo",
      "dest"
    ],
    [
      "o",
      "k"
    ],
    [
      "Cor",
      "io"
    ],
    [
      "Corio",
      "li"
    ],
    [
      "brow",
      "s"
    ],
    [
      "e",
      "ed"
    ],
    [
      "Me",
      "thinks"
    ],
    [
      "un",
      "ning"
    ],
    [
      "ct",
      "or"
    ],
    [
      "ci",
      "an"
    ],
    [
      "w",
      "ing"
    ],
    [
      "s",
      "words"
    ],
    [
      "coun",
      "ten"
    ],
    [
      "F",
      "ie"
    ],
    [
      "fing",
      "er"
    ],
    [
      "exc",
      "use"
    ],
    [
      "w",
      "ag"
    ],
    [
      "fellow",
      "s"
    ],
    [
      "pa",
      "ck"
    ],
    [
      "Whi",
      "lst"
    ],
    [
      "ce",
      "ase"
    ],
    [
      "P",
      "lease"
    ],
    [
      "in",
      "cl"
    ],
    [
      "H",
      "ence"
    ],
    [
      "d",
      "ull"
    ],
    [
      "to",
      "p"
    ],
    [
      "pro",
      "per"
    ],
    [
      "al",
      "s"
    ],
    [
      "ed",
      "ing"
    ],
    [
      "bo",
      "t"
    ],
    [
      "ca",
      "p"
    ],
    [
      "re",
      "ceived"
    ],
    [
      "De",
      "ath"
    ],
    [
      "tong",
      "ues"
    ],
    [
      "en",
      "s"
    ],
    [
      "eas",
      "y"
    ],
    [
      "maid",
      "s"
    ],
    [
      "ble",
      "st"
    ],
    [
      "ut",
      "ion"
    ],
    [
      "g",
      "own"
    ],
    [
      "ta",
      "ken"
    ],
    [
      "ci",
      "al"
    ],
    [
      "g",
      "arm"
    ],
    [
      "sp",
      "ake"
    ],
    [
      "Af",
      "ter"
    ],
    [
      "co",
      "ck"
    ],
    [
      "div",
      "ine"
    ],
    [
      "con",
      "cl"
    ],
    [
      "st",
      "oop"
    ],
    [
      "ex",
      "tre"
    ],
    [
      "ad",
      "o"
    ],
    [
      "st",
      "ones"
    ],
    [
      "le",
      "ep"
    ],
    [
      "tem",
      "per"
    ],
    [
      "y",
      "ard"
    ],
    [
      "f",
      "old"
    ],
    [
      "r",
      "ay"
    ],
    [
      "bu",
      "ried"
    ],
    [
      "may",
      "st"
    ],
    [
      "id",
      "ent"
    ],
    [
      "ve",
      "ll"
    ],
    [
      "al",
      "ter"
    ],
    [
      "l",
      "oo"
    ],
    [
      "W",
      "i"
    ],
    [
      "fru",
      "it"
    ],
    [
      "b",
      "ite"
    ],
    [
      "chang",
      "ed"
    ],
    [
      "and",
      "er"
    ],
    [
      "Lord",
      "s"
    ],
    [
      "cor",
      "se"
    ],
    [
      "vi",
      "ous"
    ],
    [
      "R",
      "ut"
    ],
    [
      "Rut",
      "land"
    ],
    [
      "hum",
      "our"
    ],
    [
      "honest",
      "y"
    ],
    [
      "ro",
      "om"
    ],
    [
      "B",
      "IS"
    ],
    [
      "BIS",
      "H"
    ],
    [
      "BISH",
      "OP"
    ],
    [
      "Tho",
      "mas"
    ],
    [
      "clo",
      "ck"
    ],
    [
      "ST",
      "AN"
    ],
    [
      "STAN",
      "LE"
    ],
    [
      "STANLE",
      "Y"
    ],
    [
      "sh",
      "ri"
    ],
    [
      "tra",
      "ct"
    ],
    [
      "deput",
      "y"
    ],
    [
      "ty",
      "rant"
    ],
    [
      "IS",
      "T"
    ],
    [
      "g",
      "age"
    ],
    [
      "sha",
      "l"
    ],
    [
      "TY",
      "BAL"
    ],
    [
      "TYBAL",
      "T"
    ],
    [
      "M",
      "ant"
    ],
    [
      "Mant",
      "ua"
    ],
    [
      "Pet",
      "er"
    ],
    [
      "B",
      "arn"
    ],
    [
      "en",
      "es"
    ],
    [
      "Paul",
      "ina"
    ],
    [
      "V",
      "in"
    ],
    [
      "Vin",
      "centio"
    ],
    [
      "Ca",
      "ius"
    ],
    [
      "chi",
      "ef"
    ],
    [
      "le",
      "an"
    ],
    [
      "al",
      "ways"
    ],
    [
      "sen",
      "ate"
    ],
    [
      "c",
      "up"
    ],
    [
      "s",
      "mile"
    ],
    [
      "cho",
      "ice"
    ],
    [
      "con",
      "stant"
    ],
    [
      "ar",
      "ti"
    ],
    [
      "no",
      "on"
    ],
    [
      "Bes",
      "ides"
    ],
    [
      "p",
      "in"
    ],
    [
      "cir",
      "c"
    ],
    [
      "we",
      "st"
    ],
    [
      "prepar",
      "ed"
    ],
    [
      "ab",
      "s"
    ],
    [
      "em",
      "brace"
    ],
    [
      "there",
      "in"
    ],
    [
      "I",
      "nd"
    ],
    [
      "A",
      "L"
    ],
    [
      "li",
      "a"
    ],
    [
      "T",
      "ut"
    ],
    [
      "w",
      "ra"
    ],
    [
      "th",
      "under"
    ],
    [
      "dro",
      "p"
    ],
    [
      "char",
      "ged"
    ],
    [
      "d",
      "ri"
    ],
    [
      "An",
      "ti"
    ],
    [
      "we",
      "igh"
    ],
    [
      "ren",
      "ch"
    ],
    [
      "sil",
      "ence"
    ],
    [
      "re",
      "f"
    ],
    [
      "face",
      "d"
    ],
    [
      "no",
      "se"
    ],
    [
      "per",
      "ceive"
    ],
    [
      "bl",
      "ush"
    ],
    [
      "g",
      "if"
    ],
    [
      "w",
      "ine"
    ],
    [
      "be",
      "ard"
    ],
    [
      "f",
      "an"
    ],
    [
      "w",
      "ol"
    ],
    [
      "occ",
      "asion"
    ],
    [
      "ut",
      "ter"
    ],
    [
      "k",
      "na"
    ],
    [
      "ne",
      "cess"
    ],
    [
      "em",
      "p"
    ],
    [
      "lea",
      "ves"
    ],
    [
      "it",
      "ed"
    ],
    [
      "i",
      "ld"
    ],
    [
      "she",
      "ep"
    ],
    [
      "Jo",
      "ve"
    ],
    [
      "t",
      "wixt"
    ],
    [
      "sa",
      "il"
    ],
    [
      "comm",
      "end"
    ],
    [
      "st",
      "ar"
    ],
    [
      "v",
      "ish"
    ],
    [
      "d",
      "ust"
    ],
    [
      "S",
      "i"
    ],
    [
      "t",
      "wice"
    ],
    [
      "ar",
      "p"
    ],
    [
      "dra",
      "wn"
    ],
    [
      "plo",
      "t"
    ],
    [
      "l",
      "er"
    ],
    [
      "reason",
      "s"
    ],
    [
      "f",
      "ran"
    ],
    [
      "tra",
      "itors"
    ],
    [
      "ll",
      "en"
    ],
    [
      "reme",
      "dy"
    ],
    [
      "fi",
      "ery"
    ],
    [
      "lo",
      "t"
    ],
    [
      "qu",
      "er"
    ],
    [
      "kn",
      "ave"
    ],
    [
      "sa",
      "fet"
    ],
    [
      "safet",
      "y"
    ],
    [
      "ty",
      "ran"
    ],
    [
      "cour",
      "age"
    ],
    [
      "it",
      "es"
    ],
    [
      "wrong",
      "s"
    ],
    [
      "i",
      "mag"
    ],
    [
      "whi",
      "lst"
    ],
    [
      "we",
      "alth"
    ],
    [
      "pre",
      "vent"
    ],
    [
      "af",
      "fair"
    ],
    [
      "w",
      "his"
    ],
    [
      "sir",
      "rah"
    ],
    [
      "Ar",
      "t"
    ],
    [
      "N",
      "e"
    ],
    [
      "id",
      "ings"
    ],
    [
      "Bro",
      "ther"
    ],
    [
      "Mis",
      "tress"
    ],
    [
      "BRA",
      "K"
    ],
    [
      "BRAK",
      "EN"
    ],
    [
      "BRAKEN",
      "BURY"
    ],
    [
      "m",
      "n"
    ],
    [
      "gh",
      "ost"
    ],
    [
      "Do",
      "st"
    ],
    [
      "wick",
      "ed"
    ],
    [
      "rep",
      "ent"
    ],
    [
      "pro",
      "te"
    ],
    [
      "sim",
      "ple"
    ],
    [
      "gro",
      "ss"
    ],
    [
      "pain",
      "s"
    ],
    [
      "inno",
      "cent"
    ],
    [
      "Pr",
      "ince"
    ],
    [
      "with",
      "er"
    ],
    [
      "fa",
      "in"
    ],
    [
      "im",
      "port"
    ],
    [
      "gre",
      "en"
    ],
    [
      "f",
      "ret"
    ],
    [
      "St",
      "an"
    ],
    [
      "Stan",
      "ley"
    ],
    [
      "Fri",
      "ar"
    ],
    [
      "r",
      "ound"
    ],
    [
      "si",
      "re"
    ],
    [
      "TH",
      "OM"
    ],
    [
      "THOM",
      "AS"
    ],
    [
      "sa",
      "cred"
    ],
    [
      "a",
      "ma"
    ],
    [
      "gir",
      "l"
    ],
    [
      "Ver",
      "ona"
    ],
    [
      "S",
      "om"
    ],
    [
      "Som",
      "er"
    ],
    [
      "AN",
      "D"
    ],
    [
      "at",
      "ing"
    ],
    [
      "Cap",
      "i"
    ],
    [
      "Capi",
      "tol"
    ],
    [
      "Men",
      "en"
    ],
    [
      "Menen",
      "ius"
    ],
    [
      "bell",
      "y"
    ],
    [
      "ti",
      "ve"
    ],
    [
      "in",
      "ous"
    ],
    [
      "com",
      "plain"
    ],
    [
      "car",
      "es"
    ],
    [
      "ben",
      "ef"
    ],
    [
      "r",
      "as"
    ],
    [
      "if",
      "f"
    ],
    [
      "pass",
      "ing"
    ],
    [
      "hun",
      "g"
    ],
    [
      "bor",
      "ne"
    ],
    [
      "a",
      "ught"
    ],
    [
      "abs",
      "ence"
    ],
    [
      "where",
      "in"
    ],
    [
      "ren",
      "own"
    ],
    [
      "prof",
      "ess"
    ],
    [
      "Ind",
      "eed"
    ],
    [
      "am",
      "p"
    ],
    [
      "tre",
      "ad"
    ],
    [
      "tro",
      "th"
    ],
    [
      "counten",
      "ance"
    ],
    [
      "Pri",
      "thee"
    ],
    [
      "car",
      "ry"
    ],
    [
      "sil",
      "ver"
    ],
    [
      "wor",
      "e"
    ],
    [
      "viol",
      "ent"
    ],
    [
      "F",
      "l"
    ],
    [
      "in",
      "form"
    ],
    [
      "pla",
      "gue"
    ],
    [
      "Where",
      "in"
    ],
    [
      "D",
      "i"
    ],
    [
      "g",
      "g"
    ],
    [
      "Of",
      "fi"
    ],
    [
      "Ha",
      "ving"
    ],
    [
      "h",
      "ors"
    ],
    [
      "trumpet",
      "s"
    ],
    [
      "ti",
      "red"
    ],
    [
      "f",
      "ury"
    ],
    [
      "rot",
      "ten"
    ],
    [
      "j",
      "our"
    ],
    [
      "pray",
      "er"
    ],
    [
      "mo",
      "tion"
    ],
    [
      "f",
      "la"
    ],
    [
      "deser",
      "ve"
    ],
    [
      "stu",
      "ff"
    ],
    [
      "gi",
      "ves"
    ],
    [
      "u",
      "ff"
    ],
    [
      "want",
      "on"
    ],
    [
      "ple",
      "ad"
    ],
    [
      "pro",
      "v"
    ],
    [
      "T",
      "urn"
    ],
    [
      "we",
      "eds"
    ],
    [
      "de",
      "w"
    ],
    [
      "ad",
      "ie"
    ],
    [
      "adie",
      "u"
    ],
    [
      "pra",
      "ct"
    ],
    [
      "pract",
      "ise"
    ],
    [
      "wit",
      "ch"
    ],
    [
      "ignor",
      "ant"
    ],
    [
      "z",
      "ard"
    ],
    [
      "pa",
      "wn"
    ],
    [
      "e",
      "ag"
    ],
    [
      "des",
      "pite"
    ],
    [
      "on",
      "oun"
    ],
    [
      "ro",
      "ck"
    ],
    [
      "col",
      "our"
    ],
    [
      "l",
      "angu"
    ],
    [
      "wel",
      "ve"
    ],
    [
      "ru",
      "de"
    ],
    [
      "b",
      "all"
    ],
    [
      "Wi",
      "thou"
    ],
    [
      "Withou",
      "t"
    ],
    [
      "ught",
      "ers"
    ],
    [
      "des",
      "ign"
    ],
    [
      "s",
      "its"
    ],
    [
      "qu",
      "aint"
    ],
    [
      "de",
      "ceived"
    ],
    [
      "je",
      "alous"
    ],
    [
      "ha",
      "ps"
    ],
    [
      "hold",
      "s"
    ],
    [
      "w",
      "ings"
    ],
    [
      "My",
      "self"
    ],
    [
      "de",
      "light"
    ],
    [
      "b",
      "ark"
    ],
    [
      "tre",
      "ach"
    ],
    [
      "im",
      "prison"
    ],
    [
      "l",
      "an"
    ],
    [
      "ke",
      "y"
    ],
    [
      "fat",
      "al"
    ],
    [
      "de",
      "l"
    ],
    [
      "curse",
      "d"
    ],
    [
      "D",
      "ER"
    ],
    [
      "DER",
      "BY"
    ],
    [
      "mean",
      "ing"
    ],
    [
      "D",
      "or"
    ],
    [
      "al",
      "as"
    ],
    [
      "Chris",
      "ti"
    ],
    [
      "bro",
      "ken"
    ],
    [
      "ho",
      "llow"
    ],
    [
      "lo",
      "ath"
    ],
    [
      "chee",
      "k"
    ],
    [
      "or",
      "acle"
    ],
    [
      "far",
      "es"
    ],
    [
      "may",
      "or"
    ],
    [
      "cast",
      "le"
    ],
    [
      "g",
      "arden"
    ],
    [
      "boo",
      "t"
    ],
    [
      "w",
      "ent"
    ],
    [
      "ro",
      "th"
    ],
    [
      "h",
      "it"
    ],
    [
      "app",
      "are"
    ],
    [
      "GRE",
      "G"
    ],
    [
      "GREG",
      "OR"
    ],
    [
      "GREGOR",
      "Y"
    ],
    [
      "li",
      "x"
    ],
    [
      "Somer",
      "set"
    ],
    [
      "Apo",
      "llo"
    ],
    [
      "M",
      "IST"
    ],
    [
      "MIST",
      "R"
    ],
    [
      "MISTR",
      "ESS"
    ],
    [
      "O",
      "V"
    ],
    [
      "OV",
      "ERD"
    ],
    [
      "OVERD",
      "ON"
    ],
    [
      "OVERDON",
      "E"
    ],
    [
      "Barn",
      "ard"
    ],
    [
      "Barnard",
      "ine"
    ],
    [
      "resol",
      "ved"
    ],
    [
      "fa",
      "m"
    ],
    [
      "R",
      "es"
    ],
    [
      "author",
      "ity"
    ],
    [
      "und",
      "one"
    ],
    [
      "st",
      "at"
    ],
    [
      "ut",
      "es"
    ],
    [
      "ser",
      "ves"
    ],
    [
      "dis",
      "grace"
    ],
    [
      "S",
      "till"
    ],
    [
      "um",
      "ents"
    ],
    [
      "dev",
      "ise"
    ],
    [
      "instr",
      "uct"
    ],
    [
      "who",
      "le"
    ],
    [
      "part",
      "s"
    ],
    [
      "i",
      "ence"
    ],
    [
      "re",
      "ceive"
    ],
    [
      "bra",
      "in"
    ],
    [
      "br",
      "an"
    ],
    [
      "benef",
      "it"
    ],
    [
      "ras",
      "cal"
    ],
    [
      "v",
      "antage"
    ],
    [
      "per",
      "su"
    ],
    [
      "tro",
      "op"
    ],
    [
      "Mar",
      "k"
    ],
    [
      "a",
      "im"
    ],
    [
      "f",
      "as"
    ],
    [
      "fas",
      "hi"
    ],
    [
      "miss",
      "ion"
    ],
    [
      "ex",
      "press"
    ],
    [
      "be",
      "comes"
    ],
    [
      "V",
      "AL"
    ],
    [
      "VAL",
      "ER"
    ],
    [
      "VALER",
      "IA"
    ],
    [
      "c",
      "at"
    ],
    [
      "ex",
      "cell"
    ],
    [
      "l",
      "end"
    ],
    [
      "sh",
      "ut"
    ],
    [
      "hur",
      "t"
    ],
    [
      "wi",
      "ves"
    ],
    [
      "follow",
      "ers"
    ],
    [
      "phy",
      "si"
    ],
    [
      "Th",
      "ree"
    ],
    [
      "ti",
      "al"
    ],
    [
      "adv",
      "antage"
    ],
    [
      "s",
      "me"
    ],
    [
      "dis",
      "position"
    ],
    [
      "out",
      "ward"
    ],
    [
      "n",
      "umber"
    ],
    [
      "H",
      "o"
    ],
    [
      "should",
      "st"
    ],
    [
      "but",
      "cher"
    ],
    [
      "lam",
      "b"
    ],
    [
      "fool",
      "s"
    ],
    [
      "per",
      "fect"
    ],
    [
      "follow",
      "s"
    ],
    [
      "whi",
      "ther"
    ],
    [
      "t",
      "on"
    ],
    [
      "pres",
      "er"
    ],
    [
      "n",
      "ine"
    ],
    [
      "off",
      "end"
    ],
    [
      "in",
      "her"
    ],
    [
      "In",
      "to"
    ],
    [
      "s",
      "li"
    ],
    [
      "no",
      "bles"
    ],
    [
      "r",
      "ate"
    ],
    [
      "re",
      "ma"
    ],
    [
      "if",
      "y"
    ],
    [
      "li",
      "m"
    ],
    [
      "cri",
      "es"
    ],
    [
      "qui",
      "re"
    ],
    [
      "stand",
      "ing"
    ],
    [
      "garm",
      "ents"
    ],
    [
      "aw",
      "ake"
    ],
    [
      "obedi",
      "ence"
    ],
    [
      "ru",
      "in"
    ],
    [
      "court",
      "es"
    ],
    [
      "c",
      "row"
    ],
    [
      "spo",
      "ken"
    ],
    [
      "p",
      "ul"
    ],
    [
      "s",
      "ooth"
    ],
    [
      "thro",
      "at"
    ],
    [
      "as",
      "leep"
    ],
    [
      "thr",
      "ust"
    ],
    [
      "po",
      "ster"
    ],
    [
      "sup",
      "per"
    ],
    [
      "G",
      "reat"
    ],
    [
      "p",
      "assa"
    ],
    [
      "ta",
      "il"
    ],
    [
      "thri",
      "ve"
    ],
    [
      "me",
      "ss"
    ],
    [
      "et",
      "y"
    ],
    [
      "name",
      "s"
    ],
    [
      "din",
      "ner"
    ],
    [
      "pre",
      "pare"
    ],
    [
      "hang",
      "ing"
    ],
    [
      "sigh",
      "s"
    ],
    [
      "acc",
      "ess"
    ],
    [
      "affair",
      "s"
    ],
    [
      "adv",
      "ise"
    ],
    [
      "lo",
      "d"
    ],
    [
      "t",
      "idings"
    ],
    [
      "dread",
      "ful"
    ],
    [
      "comm",
      "it"
    ],
    [
      "beg",
      "ins"
    ],
    [
      "Gre",
      "y"
    ],
    [
      "s",
      "aint"
    ],
    [
      "guil",
      "t"
    ],
    [
      "damn",
      "ed"
    ],
    [
      "w",
      "of"
    ],
    [
      "wof",
      "ul"
    ],
    [
      "en",
      "vious"
    ],
    [
      "Ri",
      "vers"
    ],
    [
      "de",
      "posed"
    ],
    [
      "ba",
      "be"
    ],
    [
      "Christi",
      "an"
    ],
    [
      "ted",
      "ious"
    ],
    [
      "res",
      "ign"
    ],
    [
      "ld",
      "om"
    ],
    [
      "i",
      "al"
    ],
    [
      "e",
      "k"
    ],
    [
      "stor",
      "m"
    ],
    [
      "C",
      "H"
    ],
    [
      "is",
      "le"
    ],
    [
      "ne",
      "g"
    ],
    [
      "C",
      "ousin"
    ],
    [
      "con",
      "tract"
    ],
    [
      "tr",
      "es"
    ],
    [
      "bur",
      "then"
    ],
    [
      "far",
      "ther"
    ],
    [
      "int",
      "ed"
    ],
    [
      "R",
      "R"
    ],
    [
      "sh",
      "ore"
    ],
    [
      "RICH",
      "MON"
    ],
    [
      "RICHMON",
      "D"
    ],
    [
      "O",
      "X"
    ],
    [
      "OX",
      "F"
    ],
    [
      "OXF",
      "ORD"
    ],
    [
      "a",
      "x"
    ],
    [
      "w",
      "ood"
    ],
    [
      "gro",
      "om"
    ],
    [
      "seem",
      "ing"
    ],
    [
      "gentle",
      "woman"
    ],
    [
      "Th",
      "ur"
    ],
    [
      "Thur",
      "s"
    ],
    [
      "Thurs",
      "day"
    ],
    [
      "Mus",
      "ician"
    ],
    [
      "cle",
      "ar"
    ],
    [
      "S",
      "OM"
    ],
    [
      "SOM",
      "ERS"
    ],
    [
      "SOMERS",
      "ET"
    ],
    [
      "Her",
      "mi"
    ],
    [
      "Hermi",
      "one"
    ],
    [
      "P",
      "is"
    ],
    [
      "Pis",
      "a"
    ],
    [
      "hu",
      "man"
    ],
    [
      "V",
      "ery"
    ],
    [
      "acc",
      "us"
    ],
    [
      "int",
      "end"
    ],
    [
      "cra",
      "ck"
    ],
    [
      "father",
      "s"
    ],
    [
      "ous",
      "es"
    ],
    [
      "ra",
      "in"
    ],
    [
      "ce",
      "i"
    ],
    [
      "king",
      "ly"
    ],
    [
      "r",
      "ash"
    ],
    [
      "gu",
      "es"
    ],
    [
      "op",
      "in"
    ],
    [
      "sever",
      "al"
    ],
    [
      "ag",
      "es"
    ],
    [
      "s",
      "ho"
    ],
    [
      "pet",
      "ition"
    ],
    [
      "B",
      "r"
    ],
    [
      "pre",
      "vail"
    ],
    [
      "li",
      "on"
    ],
    [
      "ate",
      "st"
    ],
    [
      "dis",
      "dain"
    ],
    [
      "circ",
      "um"
    ],
    [
      "e",
      "ast"
    ],
    [
      "see",
      "ing"
    ],
    [
      "e",
      "le"
    ],
    [
      "Bes",
      "eech"
    ],
    [
      "te",
      "eth"
    ],
    [
      "l",
      "ist"
    ],
    [
      "wra",
      "th"
    ],
    [
      "f",
      "light"
    ],
    [
      "u",
      "ed"
    ],
    [
      "dar",
      "es"
    ],
    [
      "m",
      "ur"
    ],
    [
      "pri",
      "ze"
    ],
    [
      "i",
      "est"
    ],
    [
      "su",
      "ed"
    ],
    [
      "y",
      "onder"
    ],
    [
      "tle",
      "d"
    ],
    [
      "ex",
      "ile"
    ],
    [
      "threat",
      "en"
    ],
    [
      "dire",
      "ct"
    ],
    [
      "de",
      "lay"
    ],
    [
      "cond",
      "uct"
    ],
    [
      "be",
      "held"
    ],
    [
      "hors",
      "es"
    ],
    [
      "s",
      "an"
    ],
    [
      "su",
      "red"
    ],
    [
      "th",
      "i"
    ],
    [
      "sp",
      "end"
    ],
    [
      "le",
      "gs"
    ],
    [
      "ad",
      "venture"
    ],
    [
      "wound",
      "ed"
    ],
    [
      "won",
      "t"
    ],
    [
      "H",
      "as"
    ],
    [
      "lar",
      "ge"
    ],
    [
      "ro",
      "ot"
    ],
    [
      "s",
      "way"
    ],
    [
      "Offi",
      "cer"
    ],
    [
      "if",
      "fer"
    ],
    [
      "af",
      "fect"
    ],
    [
      "Le",
      "ave"
    ],
    [
      "dy",
      "ing"
    ],
    [
      "ow",
      "e"
    ],
    [
      "ac",
      "cept"
    ],
    [
      "comp",
      "ass"
    ],
    [
      "ro",
      "ar"
    ],
    [
      "den",
      "ied"
    ],
    [
      "reme",
      "m"
    ],
    [
      "remem",
      "br"
    ],
    [
      "fort",
      "unes"
    ],
    [
      "v",
      "an"
    ],
    [
      "i",
      "me"
    ],
    [
      "pun",
      "ish"
    ],
    [
      "cur",
      "r"
    ],
    [
      "ta",
      "ste"
    ],
    [
      "us",
      "ion"
    ],
    [
      "courtes",
      "y"
    ],
    [
      "um",
      "p"
    ],
    [
      "He",
      "lp"
    ],
    [
      "we",
      "ap"
    ],
    [
      "qu",
      "ench"
    ],
    [
      "pr",
      "onoun"
    ],
    [
      "A",
      "E"
    ],
    [
      "be",
      "loved"
    ],
    [
      "per",
      "il"
    ],
    [
      "per",
      "ish"
    ],
    [
      "comp",
      "an"
    ],
    [
      "b",
      "as"
    ],
    [
      "acc",
      "use"
    ],
    [
      "con",
      "quer"
    ],
    [
      "al",
      "m"
    ],
    [
      "cha",
      "ir"
    ],
    [
      "cor",
      "rup"
    ],
    [
      "ve",
      "x"
    ],
    [
      "spir",
      "its"
    ],
    [
      "c",
      "unning"
    ],
    [
      "Be",
      "lieve"
    ],
    [
      "r",
      "t"
    ],
    [
      "t",
      "welve"
    ],
    [
      "da",
      "ughters"
    ],
    [
      "f",
      "lies"
    ],
    [
      "um",
      "ble"
    ],
    [
      "par",
      "ent"
    ],
    [
      "con",
      "j"
    ],
    [
      "b",
      "ond"
    ],
    [
      "for",
      "sworn"
    ],
    [
      "p",
      "ure"
    ],
    [
      "un",
      "til"
    ],
    [
      "sh",
      "r"
    ],
    [
      "pa",
      "per"
    ],
    [
      "Bo",
      "y"
    ],
    [
      "en",
      "ces"
    ],
    [
      "be",
      "like"
    ],
    [
      "pro",
      "test"
    ],
    [
      "bet",
      "wixt"
    ],
    [
      "conf",
      "er"
    ],
    [
      "em",
      "plo"
    ],
    [
      "emplo",
      "y"
    ],
    [
      "pre",
      "y"
    ],
    [
      "we",
      "ight"
    ],
    [
      "time",
      "ly"
    ],
    [
      "c",
      "ate"
    ],
    [
      "urse",
      "d"
    ],
    [
      "u",
      "g"
    ],
    [
      "happ",
      "iness"
    ],
    [
      "miser",
      "able"
    ],
    [
      "cur",
      "st"
    ],
    [
      "emp",
      "ty"
    ],
    [
      "wall",
      "ow"
    ],
    [
      "hum",
      "bly"
    ],
    [
      "st",
      "ab"
    ],
    [
      "sole",
      "mn"
    ],
    [
      "pen",
      "it"
    ],
    [
      "ha",
      "bit"
    ],
    [
      "w",
      "ander"
    ],
    [
      "f",
      "le"
    ],
    [
      "neigh",
      "bour"
    ],
    [
      "keep",
      "s"
    ],
    [
      "contin",
      "ue"
    ],
    [
      "sl",
      "ow"
    ],
    [
      "G",
      "ra"
    ],
    [
      "l",
      "ine"
    ],
    [
      "oun",
      "ty"
    ],
    [
      "T",
      "wo"
    ],
    [
      "E",
      "l"
    ],
    [
      "B",
      "ona"
    ],
    [
      "contr",
      "ary"
    ],
    [
      "t",
      "ut"
    ],
    [
      "resol",
      "ve"
    ],
    [
      "st",
      "ep"
    ],
    [
      "as",
      "p"
    ],
    [
      "M",
      "OW"
    ],
    [
      "MOW",
      "BRA"
    ],
    [
      "MOWBRA",
      "Y"
    ],
    [
      "B",
      "US"
    ],
    [
      "BUS",
      "H"
    ],
    [
      "BUSH",
      "Y"
    ],
    [
      "cred",
      "it"
    ],
    [
      "pal",
      "ace"
    ],
    [
      "pleas",
      "ant"
    ],
    [
      "wed",
      "ding"
    ],
    [
      "good",
      "ness"
    ],
    [
      "sor",
      "ry"
    ],
    [
      "EX",
      "ET"
    ],
    [
      "EXET",
      "ER"
    ],
    [
      "su",
      "ffi"
    ],
    [
      "S",
      "ici"
    ],
    [
      "M",
      "A"
    ],
    [
      "MA",
      "MIL"
    ],
    [
      "MAMIL",
      "L"
    ],
    [
      "MAMILL",
      "IUS"
    ],
    [
      "Po",
      "lix"
    ],
    [
      "Polix",
      "enes"
    ],
    [
      "M",
      "OP"
    ],
    [
      "MOP",
      "SA"
    ],
    [
      "AB",
      "HOR"
    ],
    [
      "ABHOR",
      "SON"
    ],
    [
      "B",
      "ion"
    ],
    [
      "Bion",
      "de"
    ],
    [
      "Bionde",
      "llo"
    ],
    [
      "T",
      "ail"
    ],
    [
      "Tail",
      "or"
    ],
    [
      "ats",
      "wain"
    ],
    [
      "pat",
      "ri"
    ],
    [
      "who",
      "les"
    ],
    [
      "wholes",
      "ome"
    ],
    [
      "mis",
      "ery"
    ],
    [
      "par",
      "tic"
    ],
    [
      "ser",
      "vices"
    ],
    [
      "ous",
      "ly"
    ],
    [
      "ti",
      "re"
    ],
    [
      "im",
      "ent"
    ],
    [
      "h",
      "ouses"
    ],
    [
      "vi",
      "de"
    ],
    [
      "w",
      "ond"
    ],
    [
      "fo",
      "lly"
    ],
    [
      "sen",
      "ators"
    ],
    [
      "p",
      "ub"
    ],
    [
      "pub",
      "lic"
    ],
    [
      "Than",
      "ks"
    ],
    [
      "opin",
      "ion"
    ],
    [
      "in",
      "cre"
    ],
    [
      "de",
      "p"
    ],
    [
      "ma",
      "king"
    ],
    [
      "fe",
      "e"
    ],
    [
      "On",
      "ly"
    ],
    [
      "sp",
      "are"
    ],
    [
      "command",
      "ed"
    ],
    [
      "ass",
      "ist"
    ],
    [
      "com",
      "for"
    ],
    [
      "su",
      "ck"
    ],
    [
      "excell",
      "ent"
    ],
    [
      "here",
      "after"
    ],
    [
      "be",
      "yond"
    ],
    [
      "in",
      "fect"
    ],
    [
      "fa",
      "ces"
    ],
    [
      "h",
      "ark"
    ],
    [
      "pra",
      "ise"
    ],
    [
      "mar",
      "ket"
    ],
    [
      "sh",
      "un"
    ],
    [
      "R",
      "et"
    ],
    [
      "end",
      "ure"
    ],
    [
      "adv",
      "ance"
    ],
    [
      "see",
      "st"
    ],
    [
      "re",
      "ward"
    ],
    [
      "B",
      "ear"
    ],
    [
      "some",
      "time"
    ],
    [
      "re",
      "ed"
    ],
    [
      "n",
      "aked"
    ],
    [
      "m",
      "ill"
    ],
    [
      "m",
      "ity"
    ],
    [
      "dis",
      "cover"
    ],
    [
      "rever",
      "end"
    ],
    [
      "d",
      "it"
    ],
    [
      "bu",
      "ild"
    ],
    [
      "their",
      "s"
    ],
    [
      "lead",
      "s"
    ],
    [
      "com",
      "ple"
    ],
    [
      "hat",
      "red"
    ],
    [
      "de",
      "vo"
    ],
    [
      "gi",
      "ving"
    ],
    [
      "deter",
      "min"
    ],
    [
      "rema",
      "ins"
    ],
    [
      "willing",
      "ly"
    ],
    [
      "dig",
      "n"
    ],
    [
      "sc",
      "ene"
    ],
    [
      "ter",
      "ror"
    ],
    [
      "g",
      "ate"
    ],
    [
      "pain",
      "ted"
    ],
    [
      "per",
      "pet"
    ],
    [
      "int",
      "ent"
    ],
    [
      "mon",
      "str"
    ],
    [
      "call",
      "ed"
    ],
    [
      "w",
      "its"
    ],
    [
      "counter",
      "feit"
    ],
    [
      "ap",
      "t"
    ],
    [
      "am",
      "en"
    ],
    [
      "cur",
      "ses"
    ],
    [
      "adv",
      "ised"
    ],
    [
      "bo",
      "dies"
    ],
    [
      "ru",
      "le"
    ],
    [
      "cal",
      "m"
    ],
    [
      "our",
      "ish"
    ],
    [
      "c",
      "atch"
    ],
    [
      "No",
      "thing"
    ],
    [
      "wat",
      "ers"
    ],
    [
      "un",
      "natural"
    ],
    [
      "langu",
      "age"
    ],
    [
      "under",
      "take"
    ],
    [
      "pl",
      "es"
    ],
    [
      "ra",
      "w"
    ],
    [
      "uri",
      "ous"
    ],
    [
      "wo",
      "t"
    ],
    [
      "la",
      "ce"
    ],
    [
      "g",
      "on"
    ],
    [
      "in",
      "tell"
    ],
    [
      "joy",
      "ful"
    ],
    [
      "gro",
      "an"
    ],
    [
      "turn",
      "s"
    ],
    [
      "tri",
      "ck"
    ],
    [
      "dro",
      "ps"
    ],
    [
      "m",
      "ere"
    ],
    [
      "d",
      "ed"
    ],
    [
      "ri",
      "de"
    ],
    [
      "dest",
      "roy"
    ],
    [
      "loo",
      "king"
    ],
    [
      "s",
      "co"
    ],
    [
      "i",
      "led"
    ],
    [
      "dur",
      "st"
    ],
    [
      "wa",
      "king"
    ],
    [
      "fair",
      "ly"
    ],
    [
      "fa",
      "il"
    ],
    [
      "R",
      "ight"
    ],
    [
      "short",
      "ly"
    ],
    [
      "ex",
      "pect"
    ],
    [
      "M",
      "ight"
    ],
    [
      "some",
      "times"
    ],
    [
      "ca",
      "pt"
    ],
    [
      "wind",
      "s"
    ],
    [
      "f",
      "ro"
    ],
    [
      "he",
      "ed"
    ],
    [
      "ap",
      "point"
    ],
    [
      "grie",
      "v"
    ],
    [
      "fi",
      "g"
    ],
    [
      "whi",
      "les"
    ],
    [
      "s",
      "wallow"
    ],
    [
      "w",
      "reck"
    ],
    [
      "we",
      "pt"
    ],
    [
      "pite",
      "ous"
    ],
    [
      "st",
      "ory"
    ],
    [
      "joy",
      "s"
    ],
    [
      "du",
      "ked"
    ],
    [
      "duked",
      "om"
    ],
    [
      "mis",
      "take"
    ],
    [
      "F",
      "rench"
    ],
    [
      "d",
      "ag"
    ],
    [
      "ta",
      "ught"
    ],
    [
      "hop",
      "es"
    ],
    [
      "sk",
      "y"
    ],
    [
      "p",
      "ic"
    ],
    [
      "pic",
      "ion"
    ],
    [
      "D",
      "ear"
    ],
    [
      "remembr",
      "ance"
    ],
    [
      "chi",
      "de"
    ],
    [
      "Lo",
      "ve"
    ],
    [
      "prin",
      "ces"
    ],
    [
      "govern",
      "ment"
    ],
    [
      "AR",
      "CH"
    ],
    [
      "May",
      "or"
    ],
    [
      "hi",
      "d"
    ],
    [
      "se",
      "as"
    ],
    [
      "prin",
      "cess"
    ],
    [
      "ant",
      "s"
    ],
    [
      "l",
      "uck"
    ],
    [
      "heart",
      "ed"
    ],
    [
      "N",
      "one"
    ],
    [
      "ass",
      "ur"
    ],
    [
      "assur",
      "ance"
    ],
    [
      "s",
      "ong"
    ],
    [
      "col",
      "ours"
    ],
    [
      "need",
      "ful"
    ],
    [
      "a",
      "go"
    ],
    [
      "ro",
      "se"
    ],
    [
      "f",
      "urn"
    ],
    [
      "Mar",
      "shal"
    ],
    [
      "instr",
      "ument"
    ],
    [
      "PER",
      "C"
    ],
    [
      "PERC",
      "Y"
    ],
    [
      "crown",
      "s"
    ],
    [
      "appare",
      "l"
    ],
    [
      "F",
      "ather"
    ],
    [
      "BAL",
      "TH"
    ],
    [
      "BALTH",
      "AS"
    ],
    [
      "BALTHAS",
      "AR"
    ],
    [
      "N",
      "ap"
    ],
    [
      "W",
      "id"
    ],
    [
      "Wid",
      "ow"
    ],
    [
      "partic",
      "ular"
    ],
    [
      "Wor",
      "thy"
    ],
    [
      "un",
      "known"
    ],
    [
      "want",
      "s"
    ],
    [
      "st",
      "ore"
    ],
    [
      "re",
      "pe"
    ],
    [
      "r",
      "ous"
    ],
    [
      "bear",
      "ing"
    ],
    [
      "s",
      "ink"
    ],
    [
      "P",
      "at"
    ],
    [
      "deser",
      "ves"
    ],
    [
      "incre",
      "ase"
    ],
    [
      "v",
      "ours"
    ],
    [
      "fe",
      "ed"
    ],
    [
      "fa",
      "ction"
    ],
    [
      "ad",
      "ed"
    ],
    [
      "grant",
      "ed"
    ],
    [
      "re",
      "vol"
    ],
    [
      "T",
      "it"
    ],
    [
      "bre",
      "d"
    ],
    [
      "bro",
      "ok"
    ],
    [
      "car",
      "ri"
    ],
    [
      "mer",
      "it"
    ],
    [
      "fashi",
      "on"
    ],
    [
      "W",
      "hither"
    ],
    [
      "cons",
      "ider"
    ],
    [
      "fa",
      "me"
    ],
    [
      "i",
      "a"
    ],
    [
      "ve",
      "st"
    ],
    [
      "ke",
      "eper"
    ],
    [
      "ear",
      "nest"
    ],
    [
      "drum",
      "s"
    ],
    [
      "instr",
      "uction"
    ],
    [
      "Vols",
      "ce"
    ],
    [
      "S",
      "old"
    ],
    [
      "c",
      "ise"
    ],
    [
      "f",
      "are"
    ],
    [
      "p",
      "owers"
    ],
    [
      "gre",
      "y"
    ],
    [
      "s",
      "lip"
    ],
    [
      "S",
      "et"
    ],
    [
      "art",
      "s"
    ],
    [
      "Tho",
      "se"
    ],
    [
      "Mar",
      "ch"
    ],
    [
      "p",
      "ent"
    ],
    [
      "came",
      "st"
    ],
    [
      "is",
      "es"
    ],
    [
      "v",
      "ouch"
    ],
    [
      "end",
      "er"
    ],
    [
      "grow",
      "s"
    ],
    [
      "wr",
      "ite"
    ],
    [
      "kind",
      "ly"
    ],
    [
      "san",
      "ct"
    ],
    [
      "u",
      "ary"
    ],
    [
      "pri",
      "vile"
    ],
    [
      "acc",
      "ord"
    ],
    [
      "pp",
      "ing"
    ],
    [
      "thi",
      "ef"
    ],
    [
      "com",
      "pl"
    ],
    [
      "us",
      "es"
    ],
    [
      "shi",
      "ps"
    ],
    [
      "br",
      "ings"
    ],
    [
      "a",
      "ld"
    ],
    [
      "n",
      "et"
    ],
    [
      "so",
      "ever"
    ],
    [
      "m",
      "ul"
    ],
    [
      "ti",
      "ed"
    ],
    [
      "b",
      "on"
    ],
    [
      "st",
      "ret"
    ],
    [
      "pleas",
      "ing"
    ],
    [
      "monstr",
      "ous"
    ],
    [
      "F",
      "our"
    ],
    [
      "ti",
      "ly"
    ],
    [
      "A",
      "men"
    ],
    [
      "R",
      "ep"
    ],
    [
      "friend",
      "ly"
    ],
    [
      "ch",
      "oler"
    ],
    [
      "in",
      "stant"
    ],
    [
      "ap",
      "pre"
    ],
    [
      "L",
      "ay"
    ],
    [
      "des",
      "c"
    ],
    [
      "fi",
      "x"
    ],
    [
      "sol",
      "ute"
    ],
    [
      "seiz",
      "e"
    ],
    [
      "od",
      "ds"
    ],
    [
      "or",
      "ous"
    ],
    [
      "n",
      "ought"
    ],
    [
      "respect",
      "ed"
    ],
    [
      "hi",
      "ll"
    ],
    [
      "b",
      "are"
    ],
    [
      "arm",
      "our"
    ],
    [
      "fra",
      "me"
    ],
    [
      "vir",
      "g"
    ],
    [
      "boy",
      "s"
    ],
    [
      "S",
      "up"
    ],
    [
      "se",
      "ason"
    ],
    [
      "ven",
      "om"
    ],
    [
      "be",
      "half"
    ],
    [
      "intell",
      "ig"
    ],
    [
      "ad",
      "vers"
    ],
    [
      "ar",
      "ies"
    ],
    [
      "s",
      "lay"
    ],
    [
      "S",
      "ave"
    ],
    [
      "en",
      "mity"
    ],
    [
      "su",
      "es"
    ],
    [
      "come",
      "st"
    ],
    [
      "sp",
      "ite"
    ],
    [
      "L",
      "ong"
    ],
    [
      "ta",
      "king"
    ],
    [
      "clo",
      "the"
    ],
    [
      "passa",
      "ge"
    ],
    [
      "free",
      "ly"
    ],
    [
      "id",
      "ence"
    ],
    [
      "to",
      "mb"
    ],
    [
      "li",
      "ar"
    ],
    [
      "capt",
      "ain"
    ],
    [
      "gl",
      "orious"
    ],
    [
      "in",
      "st"
    ],
    [
      "You",
      "ng"
    ],
    [
      "at",
      "tempt"
    ],
    [
      "long",
      "s"
    ],
    [
      "A",
      "c"
    ],
    [
      "st",
      "rew"
    ],
    [
      "re",
      "pair"
    ],
    [
      "kn",
      "ife"
    ],
    [
      "de",
      "g"
    ],
    [
      "deg",
      "ree"
    ],
    [
      "st",
      "ol"
    ],
    [
      "resol",
      "ution"
    ],
    [
      "mour",
      "n"
    ],
    [
      "ster",
      "n"
    ],
    [
      "sm",
      "ooth"
    ],
    [
      "treach",
      "er"
    ],
    [
      "m",
      "urderer"
    ],
    [
      "un",
      "timely"
    ],
    [
      "sup",
      "posed"
    ],
    [
      "sh",
      "arp"
    ],
    [
      "ma",
      "int"
    ],
    [
      "sus",
      "pect"
    ],
    [
      "re",
      "bel"
    ],
    [
      "eng",
      "then"
    ],
    [
      "Dor",
      "set"
    ],
    [
      "hate",
      "ful"
    ],
    [
      "s",
      "ins"
    ],
    [
      "tor",
      "ment"
    ],
    [
      "me",
      "ant"
    ],
    [
      "w",
      "ake"
    ],
    [
      "me",
      "mber"
    ],
    [
      "p",
      "urse"
    ],
    [
      "feel",
      "ing"
    ],
    [
      "de",
      "em"
    ],
    [
      "ute",
      "ous"
    ],
    [
      "sus",
      "picion"
    ],
    [
      "obedi",
      "ent"
    ],
    [
      "de",
      "bt"
    ],
    [
      "gent",
      "ly"
    ],
    [
      "dag",
      "ger"
    ],
    [
      "bo",
      "ar"
    ],
    [
      "re",
      "alm"
    ],
    [
      "ter",
      "ms"
    ],
    [
      "l",
      "is"
    ],
    [
      "man",
      "ners"
    ],
    [
      "sco",
      "pe"
    ],
    [
      "dis",
      "per"
    ],
    [
      "Ca",
      "me"
    ],
    [
      "se",
      "qu"
    ],
    [
      "me",
      "di"
    ],
    [
      "P",
      "age"
    ],
    [
      "Ex",
      "eter"
    ],
    [
      "t",
      "ort"
    ],
    [
      "sha",
      "pe"
    ],
    [
      "last",
      "ing"
    ],
    [
      "k",
      "night"
    ],
    [
      "I",
      "m"
    ],
    [
      "P",
      "ost"
    ],
    [
      "is",
      "hop"
    ],
    [
      "NOR",
      "F"
    ],
    [
      "NORF",
      "OL"
    ],
    [
      "NORFOL",
      "K"
    ],
    [
      "sle",
      "pt"
    ],
    [
      "s",
      "cept"
    ],
    [
      "scept",
      "re"
    ],
    [
      "J",
      "ust"
    ],
    [
      "appro",
      "ach"
    ],
    [
      "bir",
      "d"
    ],
    [
      "ab",
      "sent"
    ],
    [
      "ROS",
      "S"
    ],
    [
      "Gentle",
      "men"
    ],
    [
      "r",
      "ess"
    ],
    [
      "spe",
      "cial"
    ],
    [
      "ama",
      "zed"
    ],
    [
      "tra",
      "de"
    ],
    [
      "we",
      "ather"
    ],
    [
      "prof",
      "it"
    ],
    [
      "dr",
      "ess"
    ],
    [
      "ra",
      "ise"
    ],
    [
      "th",
      "orn"
    ],
    [
      "maid",
      "en"
    ],
    [
      "Lu",
      "cio"
    ],
    [
      "pass",
      "ion"
    ],
    [
      "ro",
      "gue"
    ],
    [
      "Nap",
      "les"
    ],
    [
      "Sici",
      "lia"
    ],
    [
      "DOR",
      "CA"
    ],
    [
      "DORCA",
      "S"
    ],
    [
      "Bo",
      "atswain"
    ],
    [
      "aff",
      "li"
    ],
    [
      "out",
      "s"
    ],
    [
      "b",
      "ours"
    ],
    [
      "S",
      "tri"
    ],
    [
      "ta",
      "kes"
    ],
    [
      "da",
      "ily"
    ],
    [
      "acc",
      "used"
    ],
    [
      "instr",
      "uments"
    ],
    [
      "l",
      "un"
    ],
    [
      "g",
      "n"
    ],
    [
      "ve",
      "ins"
    ],
    [
      "ex",
      "am"
    ],
    [
      "re",
      "bell"
    ],
    [
      "ab",
      "hor"
    ],
    [
      "find",
      "s"
    ],
    [
      "affection",
      "s"
    ],
    [
      "o",
      "ak"
    ],
    [
      "where",
      "of"
    ],
    [
      "ru",
      "th"
    ],
    [
      "h",
      "unt"
    ],
    [
      "Tit",
      "us"
    ],
    [
      "gre",
      "atest"
    ],
    [
      "put",
      "s"
    ],
    [
      "e",
      "qual"
    ],
    [
      "like",
      "ly"
    ],
    [
      "oo",
      "t"
    ],
    [
      "com",
      "mission"
    ],
    [
      "B",
      "ring"
    ],
    [
      "c",
      "ere"
    ],
    [
      "a",
      "like"
    ],
    [
      "no",
      "bly"
    ],
    [
      "after",
      "noon"
    ],
    [
      "fe",
      "ars"
    ],
    [
      "p",
      "ound"
    ],
    [
      "shi",
      "eld"
    ],
    [
      "s",
      "outh"
    ],
    [
      "fir",
      "es"
    ],
    [
      "Sold",
      "ier"
    ],
    [
      "je",
      "wel"
    ],
    [
      "c",
      "us"
    ],
    [
      "s",
      "ion"
    ],
    [
      "Roman",
      "s"
    ],
    [
      "op",
      "pos"
    ],
    [
      "B",
      "re"
    ],
    [
      "v",
      "ows"
    ],
    [
      "sm",
      "iles"
    ],
    [
      "prof",
      "an"
    ],
    [
      "beg",
      "g"
    ],
    [
      "sanct",
      "uary"
    ],
    [
      "jour",
      "ney"
    ],
    [
      "tell",
      "s"
    ],
    [
      "accord",
      "ing"
    ],
    [
      "at",
      "ure"
    ],
    [
      "sing",
      "le"
    ],
    [
      "hast",
      "y"
    ],
    [
      "ad",
      "ver"
    ],
    [
      "say",
      "ing"
    ],
    [
      "no",
      "bl"
    ],
    [
      "prosper",
      "ous"
    ],
    [
      "est",
      "ate"
    ],
    [
      "p",
      "tion"
    ],
    [
      "thir",
      "d"
    ],
    [
      "sound",
      "ly"
    ],
    [
      "should",
      "er"
    ],
    [
      "tre",
      "es"
    ],
    [
      "let",
      "s"
    ],
    [
      "s",
      "ore"
    ],
    [
      "sil",
      "ent"
    ],
    [
      "perpet",
      "ual"
    ],
    [
      "nor",
      "th"
    ],
    [
      "po",
      "in"
    ],
    [
      "poin",
      "ts"
    ],
    [
      "me",
      "lt"
    ],
    [
      "deser",
      "t"
    ],
    [
      "od",
      "d"
    ],
    [
      "thri",
      "ce"
    ],
    [
      "con",
      "tempt"
    ],
    [
      "en",
      "force"
    ],
    [
      "sto",
      "ck"
    ],
    [
      "wr",
      "ought"
    ],
    [
      "hard",
      "ly"
    ],
    [
      "y",
      "o"
    ],
    [
      "C",
      "o"
    ],
    [
      "curr",
      "ent"
    ],
    [
      "as",
      "sured"
    ],
    [
      "th",
      "read"
    ],
    [
      "lo",
      "cks"
    ],
    [
      "D",
      "own"
    ],
    [
      "AE",
      "di"
    ],
    [
      "AEdi",
      "le"
    ],
    [
      "virg",
      "in"
    ],
    [
      "ad",
      "es"
    ],
    [
      "beg",
      "un"
    ],
    [
      "Ke",
      "ep"
    ],
    [
      "stre",
      "ets"
    ],
    [
      "war",
      "like"
    ],
    [
      "extre",
      "me"
    ],
    [
      "l",
      "oud"
    ],
    [
      "k",
      "not"
    ],
    [
      "mer",
      "ri"
    ],
    [
      "b",
      "ill"
    ],
    [
      "avo",
      "id"
    ],
    [
      "dare",
      "st"
    ],
    [
      "un",
      "less"
    ],
    [
      "must",
      "er"
    ],
    [
      "hang",
      "ed"
    ],
    [
      "g",
      "y"
    ],
    [
      "ta",
      "me"
    ],
    [
      "Ab",
      "out"
    ],
    [
      "mess",
      "enger"
    ],
    [
      "re",
      "y"
    ],
    [
      "ur",
      "ged"
    ],
    [
      "hap",
      "ly"
    ],
    [
      "gro",
      "ans"
    ],
    [
      "e",
      "ve"
    ],
    [
      "r",
      "and"
    ],
    [
      "J",
      "ack"
    ],
    [
      "whis",
      "per"
    ],
    [
      "car",
      "ried"
    ],
    [
      "fl",
      "ow"
    ],
    [
      "wa",
      "it"
    ],
    [
      "un",
      "just"
    ],
    [
      "f",
      "if"
    ],
    [
      "Con",
      "spir"
    ],
    [
      "ra",
      "ised"
    ],
    [
      "ser",
      "ved"
    ],
    [
      "grie",
      "ve"
    ],
    [
      "pie",
      "ces"
    ],
    [
      "hea",
      "vi"
    ],
    [
      "treacher",
      "ous"
    ],
    [
      "send",
      "s"
    ],
    [
      "B",
      "ra"
    ],
    [
      "imprison",
      "ment"
    ],
    [
      "per",
      "force"
    ],
    [
      "p",
      "ath"
    ],
    [
      "griev",
      "ous"
    ],
    [
      "circum",
      "st"
    ],
    [
      "pro",
      "vo"
    ],
    [
      "reven",
      "ged"
    ],
    [
      "stro",
      "ke"
    ],
    [
      "B",
      "er"
    ],
    [
      "af",
      "ford"
    ],
    [
      "sc",
      "ore"
    ],
    [
      "stu",
      "dy"
    ],
    [
      "maint",
      "ain"
    ],
    [
      "prote",
      "ctor"
    ],
    [
      "sick",
      "ness"
    ],
    [
      "DOR",
      "S"
    ],
    [
      "DORS",
      "ET"
    ],
    [
      "love",
      "ly"
    ],
    [
      "at",
      "ic"
    ],
    [
      "n",
      "al"
    ],
    [
      "ag",
      "ue"
    ],
    [
      "pa",
      "id"
    ],
    [
      "bra",
      "w"
    ],
    [
      "per",
      "j"
    ],
    [
      "Un",
      "til"
    ],
    [
      "pe",
      "ers"
    ],
    [
      "s",
      "well"
    ],
    [
      "commit",
      "ted"
    ],
    [
      "ce",
      "it"
    ],
    [
      "be",
      "think"
    ],
    [
      "ru",
      "ly"
    ],
    [
      "Pom",
      "fret"
    ],
    [
      "gif",
      "t"
    ],
    [
      "mur",
      "d"
    ],
    [
      "eld",
      "er"
    ],
    [
      "R",
      "at"
    ],
    [
      "Rat",
      "cli"
    ],
    [
      "Ratcli",
      "ff"
    ],
    [
      "G",
      "H"
    ],
    [
      "for",
      "ds"
    ],
    [
      "P",
      "lay"
    ],
    [
      "rever",
      "ence"
    ],
    [
      "ad",
      "vice"
    ],
    [
      "TY",
      "RR"
    ],
    [
      "TYRR",
      "EL"
    ],
    [
      "I",
      "re"
    ],
    [
      "Ire",
      "land"
    ],
    [
      "W",
      "ilt"
    ],
    [
      "s",
      "ain"
    ],
    [
      "c",
      "hast"
    ],
    [
      "S",
      "al"
    ],
    [
      "M",
      "il"
    ],
    [
      "F",
      "e"
    ],
    [
      "l",
      "ark"
    ],
    [
      "G",
      "host"
    ],
    [
      "i",
      "rest"
    ],
    [
      "sh",
      "ine"
    ],
    [
      "lust",
      "y"
    ],
    [
      "boo",
      "ts"
    ],
    [
      "GRE",
      "EN"
    ],
    [
      "S",
      "on"
    ],
    [
      "wast",
      "e"
    ],
    [
      "arri",
      "ved"
    ],
    [
      "for",
      "bear"
    ],
    [
      "par",
      "li"
    ],
    [
      "parli",
      "ament"
    ],
    [
      "Ro",
      "sal"
    ],
    [
      "Rosal",
      "ine"
    ],
    [
      "coun",
      "ty"
    ],
    [
      "L",
      "a"
    ],
    [
      "abo",
      "ard"
    ],
    [
      "va",
      "ult"
    ],
    [
      "es",
      "ca"
    ],
    [
      "V",
      "i"
    ],
    [
      "f",
      "y"
    ],
    [
      "d",
      "ower"
    ],
    [
      "H",
      "unts"
    ],
    [
      "Hunts",
      "man"
    ],
    [
      "is",
      "land"
    ],
    [
      "F",
      "roth"
    ],
    [
      "ALO",
      "N"
    ],
    [
      "ALON",
      "S"
    ],
    [
      "ALONS",
      "O"
    ],
    [
      "F",
      "ERD"
    ],
    [
      "FERD",
      "IN"
    ],
    [
      "FERDIN",
      "AND"
    ],
    [
      "patri",
      "cians"
    ],
    [
      "part",
      "ly"
    ],
    [
      "ve",
      "t"
    ],
    [
      "bar",
      "ren"
    ],
    [
      "S",
      "oft"
    ],
    [
      "li",
      "ft"
    ],
    [
      "A",
      "p"
    ],
    [
      "ap",
      "pet"
    ],
    [
      "appet",
      "ite"
    ],
    [
      "re",
      "cei"
    ],
    [
      "f",
      "ood"
    ],
    [
      "rebell",
      "ion"
    ],
    [
      "des",
      "ires"
    ],
    [
      "b",
      "ility"
    ],
    [
      "sla",
      "ves"
    ],
    [
      "mouth",
      "s"
    ],
    [
      "h",
      "orn"
    ],
    [
      "ull",
      "us"
    ],
    [
      "No",
      "ble"
    ],
    [
      "bel",
      "ow"
    ],
    [
      "ro",
      "b"
    ],
    [
      "y",
      "es"
    ],
    [
      "re",
      "move"
    ],
    [
      "re",
      "jo"
    ],
    [
      "behold",
      "ing"
    ],
    [
      "st",
      "amp"
    ],
    [
      "p",
      "ing"
    ],
    [
      "t",
      "ask"
    ],
    [
      "sp",
      "it"
    ],
    [
      "ife",
      "st"
    ],
    [
      "ca",
      "ught"
    ],
    [
      "ab",
      "ly"
    ],
    [
      "pri",
      "ck"
    ],
    [
      "F",
      "are"
    ],
    [
      "R",
      "ather"
    ],
    [
      "oo",
      "l"
    ],
    [
      "F",
      "o"
    ],
    [
      "er",
      "ce"
    ],
    [
      "trem",
      "ble"
    ],
    [
      "ex",
      "er"
    ],
    [
      "he",
      "st"
    ],
    [
      "ut",
      "en"
    ],
    [
      "uten",
      "ant"
    ],
    [
      "whi",
      "p"
    ],
    [
      "tre",
      "asure"
    ],
    [
      "ac",
      "hie"
    ],
    [
      "tri",
      "but"
    ],
    [
      "in",
      "cen"
    ],
    [
      "hel",
      "m"
    ],
    [
      "mor",
      "y"
    ],
    [
      "cra",
      "ft"
    ],
    [
      "ac",
      "hes"
    ],
    [
      "beast",
      "s"
    ],
    [
      "n",
      "ap"
    ],
    [
      "char",
      "ac"
    ],
    [
      "kna",
      "ves"
    ],
    [
      "con",
      "tro"
    ],
    [
      "to",
      "m"
    ],
    [
      "at",
      "ive"
    ],
    [
      "T",
      "ar"
    ],
    [
      "her",
      "s"
    ],
    [
      "renown",
      "ed"
    ],
    [
      "new",
      "ly"
    ],
    [
      "c",
      "off"
    ],
    [
      "fan",
      "cy"
    ],
    [
      "comple",
      "x"
    ],
    [
      "ag",
      "ree"
    ],
    [
      "common",
      "s"
    ],
    [
      "e",
      "vent"
    ],
    [
      "devo",
      "tion"
    ],
    [
      "te",
      "ous"
    ],
    [
      "determin",
      "ed"
    ],
    [
      "meet",
      "ing"
    ],
    [
      "gr",
      "at"
    ],
    [
      "l",
      "ength"
    ],
    [
      "ly",
      "ing"
    ],
    [
      "Pro",
      "ceed"
    ],
    [
      "fe",
      "st"
    ],
    [
      "p",
      "up"
    ],
    [
      "sto",
      "pp"
    ],
    [
      "r",
      "are"
    ],
    [
      "ves",
      "sel"
    ],
    [
      "in",
      "y"
    ],
    [
      "T",
      "were"
    ],
    [
      "cere",
      "mon"
    ],
    [
      "ha",
      "vi"
    ],
    [
      "havi",
      "or"
    ],
    [
      "virtu",
      "es"
    ],
    [
      "Four",
      "th"
    ],
    [
      "Si",
      "x"
    ],
    [
      "li",
      "mit"
    ],
    [
      "ad",
      "mit"
    ],
    [
      "ag",
      "ed"
    ],
    [
      "in",
      "ation"
    ],
    [
      "ct",
      "ors"
    ],
    [
      "bes",
      "ides"
    ],
    [
      "occ",
      "up"
    ],
    [
      "T",
      "ri"
    ],
    [
      "ru",
      "led"
    ],
    [
      "yo",
      "ke"
    ],
    [
      "G",
      "i"
    ],
    [
      "Can",
      "not"
    ],
    [
      "st",
      "able"
    ],
    [
      "se",
      "ts"
    ],
    [
      "ho",
      "lp"
    ],
    [
      "po",
      "li"
    ],
    [
      "dis",
      "sem"
    ],
    [
      "cor",
      "re"
    ],
    [
      "st",
      "out"
    ],
    [
      "al",
      "though"
    ],
    [
      "Com",
      "mend"
    ],
    [
      "D",
      "raw"
    ],
    [
      "gra",
      "ves"
    ],
    [
      "pos",
      "ing"
    ],
    [
      "M",
      "akes"
    ],
    [
      "my",
      "ster"
    ],
    [
      "ri",
      "pe"
    ],
    [
      "acc",
      "ident"
    ],
    [
      "entertain",
      "ment"
    ],
    [
      "sme",
      "ll"
    ],
    [
      "f",
      "un"
    ],
    [
      "t",
      "ur"
    ],
    [
      "m",
      "and"
    ],
    [
      "b",
      "uck"
    ],
    [
      "w",
      "aked"
    ],
    [
      "fl",
      "ood"
    ],
    [
      "weak",
      "ness"
    ],
    [
      "def",
      "ence"
    ],
    [
      "c",
      "ti"
    ],
    [
      "ow",
      "l"
    ],
    [
      "bre",
      "ed"
    ],
    [
      "ball",
      "ad"
    ],
    [
      "re",
      "cord"
    ],
    [
      "ur",
      "ge"
    ],
    [
      "ap",
      "parent"
    ],
    [
      "sovereign",
      "ty"
    ],
    [
      "reg",
      "ard"
    ],
    [
      "for",
      "give"
    ],
    [
      "lo",
      "ts"
    ],
    [
      "bl",
      "own"
    ],
    [
      "A",
      "no"
    ],
    [
      "tyran",
      "ny"
    ],
    [
      "press",
      "ion"
    ],
    [
      "s",
      "now"
    ],
    [
      "al",
      "ack"
    ],
    [
      "re",
      "con"
    ],
    [
      "recon",
      "ci"
    ],
    [
      "wi",
      "de"
    ],
    [
      "ste",
      "ad"
    ],
    [
      "d",
      "iffer"
    ],
    [
      "jo",
      "int"
    ],
    [
      "nat",
      "ive"
    ],
    [
      "part",
      "ed"
    ],
    [
      "be",
      "tr"
    ],
    [
      "betr",
      "ay"
    ],
    [
      "sal",
      "t"
    ],
    [
      "ra",
      "il"
    ],
    [
      "l",
      "our"
    ],
    [
      "wr",
      "ink"
    ],
    [
      "prop",
      "or"
    ],
    [
      "propor",
      "tion"
    ],
    [
      "sp",
      "y"
    ],
    [
      "heir",
      "s"
    ],
    [
      "se",
      "cure"
    ],
    [
      "confer",
      "ence"
    ],
    [
      "me",
      "lan"
    ],
    [
      "melan",
      "cho"
    ],
    [
      "melancho",
      "ly"
    ],
    [
      "you",
      "n"
    ],
    [
      "F",
      "air"
    ],
    [
      "re",
      "mor"
    ],
    [
      "stab",
      "b"
    ],
    [
      "penit",
      "ent"
    ],
    [
      "co",
      "st"
    ],
    [
      "D",
      "er"
    ],
    [
      "Der",
      "by"
    ],
    [
      "bl",
      "unt"
    ],
    [
      "de",
      "test"
    ],
    [
      "breathe",
      "d"
    ],
    [
      "am",
      "s"
    ],
    [
      "au",
      "gh"
    ],
    [
      "faith",
      "ful"
    ],
    [
      "um",
      "bling"
    ],
    [
      "tem",
      "pest"
    ],
    [
      "w",
      "akes"
    ],
    [
      "Re",
      "member"
    ],
    [
      "re",
      "put"
    ],
    [
      "off",
      "ended"
    ],
    [
      "for",
      "swear"
    ],
    [
      "power",
      "ful"
    ],
    [
      "gall",
      "ant"
    ],
    [
      "re",
      "deem"
    ],
    [
      "false",
      "hood"
    ],
    [
      "H",
      "app"
    ],
    [
      "for",
      "feit"
    ],
    [
      "fe",
      "et"
    ],
    [
      "ba",
      "de"
    ],
    [
      "i",
      "mage"
    ],
    [
      "un",
      "happy"
    ],
    [
      "de",
      "ceit"
    ],
    [
      "weep",
      "s"
    ],
    [
      "l",
      "ent"
    ],
    [
      "di",
      "m"
    ],
    [
      "dire",
      "ction"
    ],
    [
      "o",
      "e"
    ],
    [
      "coun",
      "c"
    ],
    [
      "mis",
      "trust"
    ],
    [
      "grow",
      "ing"
    ],
    [
      "Ca",
      "es"
    ],
    [
      "Caes",
      "ar"
    ],
    [
      "prov",
      "ided"
    ],
    [
      "be",
      "times"
    ],
    [
      "conce",
      "it"
    ],
    [
      "se",
      "es"
    ],
    [
      "co",
      "t"
    ],
    [
      "subst",
      "it"
    ],
    [
      "t",
      "ree"
    ],
    [
      "pit",
      "ch"
    ],
    [
      "dign",
      "ity"
    ],
    [
      "Ty",
      "r"
    ],
    [
      "Tyr",
      "rel"
    ],
    [
      "a",
      "h"
    ],
    [
      "mor",
      "n"
    ],
    [
      "fair",
      "er"
    ],
    [
      "o",
      "inted"
    ],
    [
      "ir",
      "t"
    ],
    [
      "all",
      "i"
    ],
    [
      "alli",
      "ance"
    ],
    [
      "Sal",
      "is"
    ],
    [
      "Salis",
      "bury"
    ],
    [
      "C",
      "our"
    ],
    [
      "fa",
      "irest"
    ],
    [
      "ci",
      "vil"
    ],
    [
      "sto",
      "ma"
    ],
    [
      "stoma",
      "ch"
    ],
    [
      "tw",
      "ain"
    ],
    [
      "am",
      "ing"
    ],
    [
      "p",
      "il"
    ],
    [
      "pil",
      "gri"
    ],
    [
      "c",
      "ou"
    ],
    [
      "part",
      "ing"
    ],
    [
      "B",
      "us"
    ],
    [
      "de",
      "ck"
    ],
    [
      "t",
      "all"
    ],
    [
      "beg",
      "u"
    ],
    [
      "AR",
      "L"
    ],
    [
      "st",
      "ing"
    ],
    [
      "sc",
      "al"
    ],
    [
      "bes",
      "eem"
    ],
    [
      "li",
      "ken"
    ],
    [
      "sure",
      "ly"
    ],
    [
      "reg",
      "al"
    ],
    [
      "ti",
      "er"
    ],
    [
      "oath",
      "s"
    ],
    [
      "on",
      "t"
    ],
    [
      "B",
      "en"
    ],
    [
      "ab",
      "ide"
    ],
    [
      "oo",
      "se"
    ],
    [
      "fe",
      "ather"
    ],
    [
      "ex",
      "change"
    ],
    [
      "book",
      "s"
    ],
    [
      "as",
      "sure"
    ],
    [
      "cord",
      "s"
    ],
    [
      "bride",
      "groom"
    ],
    [
      "t",
      "arry"
    ],
    [
      "im",
      "possible"
    ],
    [
      "dow",
      "ry"
    ],
    [
      "f",
      "row"
    ],
    [
      "frow",
      "ard"
    ],
    [
      "M",
      "in"
    ],
    [
      "Fl",
      "or"
    ],
    [
      "Vi",
      "en"
    ],
    [
      "Vien",
      "na"
    ],
    [
      "ta",
      "p"
    ],
    [
      "Mar",
      "ian"
    ],
    [
      "Mil",
      "an"
    ],
    [
      "su",
      "per"
    ],
    [
      "ob",
      "ject"
    ],
    [
      "country",
      "men"
    ],
    [
      "pe",
      "ar"
    ],
    [
      "am",
      "ity"
    ],
    [
      "repe",
      "al"
    ],
    [
      "wond",
      "rous"
    ],
    [
      "vi",
      "ed"
    ],
    [
      "en",
      "cy"
    ],
    [
      "we",
      "al"
    ],
    [
      "Ha",
      "il"
    ],
    [
      "it",
      "ch"
    ],
    [
      "great",
      "ness"
    ],
    [
      "us",
      "hes"
    ],
    [
      "H",
      "im"
    ],
    [
      "gar",
      "land"
    ],
    [
      "pla",
      "ces"
    ],
    [
      "de",
      "cl"
    ],
    [
      "b",
      "ble"
    ],
    [
      "hung",
      "ry"
    ],
    [
      "T",
      "ullus"
    ],
    [
      "L",
      "arti"
    ],
    [
      "Larti",
      "us"
    ],
    [
      "I",
      "T"
    ],
    [
      "grace",
      "d"
    ],
    [
      "Bet",
      "ter"
    ],
    [
      "W",
      "he"
    ],
    [
      "Whe",
      "ther"
    ],
    [
      "hat",
      "ed"
    ],
    [
      "li",
      "er"
    ],
    [
      "ga",
      "ze"
    ],
    [
      "re",
      "tire"
    ],
    [
      "man",
      "ifest"
    ],
    [
      "n",
      "es"
    ],
    [
      "conf",
      "ir"
    ],
    [
      "m",
      "ood"
    ],
    [
      "dis",
      "ease"
    ],
    [
      "mir",
      "th"
    ],
    [
      "wag",
      "er"
    ],
    [
      "less",
      "er"
    ],
    [
      "Am",
      "ong"
    ],
    [
      "ed",
      "ge"
    ],
    [
      "sha",
      "pes"
    ],
    [
      "en",
      "ches"
    ],
    [
      "o",
      "pe"
    ],
    [
      "l",
      "ain"
    ],
    [
      "Fo",
      "llow"
    ],
    [
      "sel",
      "ess"
    ],
    [
      "fi",
      "erce"
    ],
    [
      "stro",
      "kes"
    ],
    [
      "exer",
      "cise"
    ],
    [
      "il",
      "ing"
    ],
    [
      "thank",
      "ful"
    ],
    [
      "war",
      "ri"
    ],
    [
      "fa",
      "wn"
    ],
    [
      "t",
      "les"
    ],
    [
      "uri",
      "es"
    ],
    [
      "L",
      "ie"
    ],
    [
      "sca",
      "pe"
    ],
    [
      "conce",
      "al"
    ],
    [
      "u",
      "ce"
    ],
    [
      "ref",
      "use"
    ],
    [
      "re",
      "pose"
    ],
    [
      "ul",
      "ate"
    ],
    [
      "me",
      "mory"
    ],
    [
      "vis",
      "age"
    ],
    [
      "sub",
      "tle"
    ],
    [
      "privile",
      "ge"
    ],
    [
      "wol",
      "f"
    ],
    [
      "action",
      "s"
    ],
    [
      "inf",
      "ant"
    ],
    [
      "a",
      "li"
    ],
    [
      "ble",
      "eding"
    ],
    [
      "est",
      "im"
    ],
    [
      "b",
      "ation"
    ],
    [
      "c",
      "ket"
    ],
    [
      "sight",
      "s"
    ],
    [
      "wind",
      "ows"
    ],
    [
      "v",
      "ar"
    ],
    [
      "burn",
      "ing"
    ],
    [
      "will",
      "s"
    ],
    [
      "str",
      "uction"
    ],
    [
      "fl",
      "at"
    ],
    [
      "care",
      "less"
    ],
    [
      "plain",
      "ly"
    ],
    [
      "oppos",
      "ite"
    ],
    [
      "stret",
      "ch"
    ],
    [
      "S",
      "it"
    ],
    [
      "pier",
      "ce"
    ],
    [
      "jo",
      "t"
    ],
    [
      "b",
      "lock"
    ],
    [
      "al",
      "ms"
    ],
    [
      "no",
      "d"
    ],
    [
      "hear",
      "tily"
    ],
    [
      "pe",
      "er"
    ],
    [
      "mar",
      "ks"
    ],
    [
      "An",
      "on"
    ],
    [
      "G",
      "et"
    ],
    [
      "mind",
      "s"
    ],
    [
      "beg",
      "an"
    ],
    [
      "Q",
      "u"
    ],
    [
      "Be",
      "hold"
    ],
    [
      "and",
      "al"
    ],
    [
      "T",
      "ime"
    ],
    [
      "E",
      "ach"
    ],
    [
      "ab",
      "used"
    ],
    [
      "ran",
      "k"
    ],
    [
      "de",
      "c"
    ],
    [
      "ab",
      "solute"
    ],
    [
      "ignor",
      "ance"
    ],
    [
      "l",
      "en"
    ],
    [
      "f",
      "ed"
    ],
    [
      "on",
      "ation"
    ],
    [
      "pronoun",
      "ce"
    ],
    [
      "with",
      "draw"
    ],
    [
      "c",
      "ue"
    ],
    [
      "in",
      "fection"
    ],
    [
      "un",
      "s"
    ],
    [
      "cra",
      "ves"
    ],
    [
      "Ret",
      "urn"
    ],
    [
      "poli",
      "cy"
    ],
    [
      "com",
      "b"
    ],
    [
      "T",
      "ush"
    ],
    [
      "t",
      "will"
    ],
    [
      "ban",
      "k"
    ],
    [
      "al",
      "o"
    ],
    [
      "deter",
      "mine"
    ],
    [
      "death",
      "s"
    ],
    [
      "law",
      "s"
    ],
    [
      "ex",
      "trem"
    ],
    [
      "extrem",
      "ity"
    ],
    [
      "young",
      "er"
    ],
    [
      "de",
      "arest"
    ],
    [
      "advers",
      "aries"
    ],
    [
      "ire",
      "ct"
    ],
    [
      "har",
      "sh"
    ],
    [
      "s",
      "ple"
    ],
    [
      "cl",
      "oud"
    ],
    [
      "clothe",
      "s"
    ],
    [
      "execut",
      "ed"
    ],
    [
      "ir",
      "on"
    ],
    [
      "a",
      "po"
    ],
    [
      "de",
      "af"
    ],
    [
      "C",
      "ry"
    ],
    [
      "so",
      "ci"
    ],
    [
      "trem",
      "bling"
    ],
    [
      "pa",
      "ble"
    ],
    [
      "f",
      "ish"
    ],
    [
      "c",
      "as"
    ],
    [
      "right",
      "s"
    ],
    [
      "ac",
      "quaint"
    ],
    [
      "burn",
      "t"
    ],
    [
      "writ",
      "ing"
    ],
    [
      "em",
      "bra"
    ],
    [
      "lo",
      "ver"
    ],
    [
      "if",
      "ied"
    ],
    [
      "c",
      "haste"
    ],
    [
      "strong",
      "er"
    ],
    [
      "yield",
      "ed"
    ],
    [
      "It",
      "al"
    ],
    [
      "Ital",
      "y"
    ],
    [
      "hang",
      "s"
    ],
    [
      "fore",
      "ign"
    ],
    [
      "triumph",
      "ant"
    ],
    [
      "big",
      "ger"
    ],
    [
      "re",
      "ap"
    ],
    [
      "dear",
      "ly"
    ],
    [
      "mo",
      "ves"
    ],
    [
      "ma",
      "le"
    ],
    [
      "Conspir",
      "ator"
    ],
    [
      "tain",
      "s"
    ],
    [
      "sc",
      "old"
    ],
    [
      "eag",
      "le"
    ],
    [
      "do",
      "ve"
    ],
    [
      "ste",
      "eds"
    ],
    [
      "ci",
      "es"
    ],
    [
      "me",
      "w"
    ],
    [
      "appoint",
      "ed"
    ],
    [
      "Me",
      "an"
    ],
    [
      "bu",
      "z"
    ],
    [
      "youn",
      "gest"
    ],
    [
      "re",
      "ach"
    ],
    [
      "self",
      "same"
    ],
    [
      "V",
      "ill"
    ],
    [
      "Vill",
      "ain"
    ],
    [
      "Did",
      "st"
    ],
    [
      "execution",
      "er"
    ],
    [
      "acc",
      "ursed"
    ],
    [
      "to",
      "ad"
    ],
    [
      "remor",
      "se"
    ],
    [
      "pa",
      "use"
    ],
    [
      "sorrow",
      "s"
    ],
    [
      "heaven",
      "ly"
    ],
    [
      "sweet",
      "er"
    ],
    [
      "su",
      "itor"
    ],
    [
      "s",
      "wore"
    ],
    [
      "J",
      "es"
    ],
    [
      "ang",
      "ling"
    ],
    [
      "p",
      "ill"
    ],
    [
      "pe",
      "e"
    ],
    [
      "le",
      "ague"
    ],
    [
      "sleep",
      "ing"
    ],
    [
      "too",
      "th"
    ],
    [
      "prophe",
      "t"
    ],
    [
      "per",
      "haps"
    ],
    [
      "dis",
      "mal"
    ],
    [
      "st",
      "umble"
    ],
    [
      "bur",
      "st"
    ],
    [
      "str",
      "anger"
    ],
    [
      "ange",
      "l"
    ],
    [
      "or",
      "ies"
    ],
    [
      "fe",
      "lt"
    ],
    [
      "Of",
      "f"
    ],
    [
      "fe",
      "ign"
    ],
    [
      "o",
      "la"
    ],
    [
      "w",
      "an"
    ],
    [
      "Happ",
      "y"
    ],
    [
      "pur",
      "chase"
    ],
    [
      "t",
      "ard"
    ],
    [
      "th",
      "in"
    ],
    [
      "ba",
      "bes"
    ],
    [
      "re",
      "qu"
    ],
    [
      "se",
      "ldom"
    ],
    [
      "un",
      "cles"
    ],
    [
      "shrew",
      "d"
    ],
    [
      "tain",
      "ted"
    ],
    [
      "suc",
      "ceed"
    ],
    [
      "fam",
      "ous"
    ],
    [
      "Un",
      "cle"
    ],
    [
      "Will",
      "i"
    ],
    [
      "Willi",
      "am"
    ],
    [
      "M",
      "any"
    ],
    [
      "des",
      "cent"
    ],
    [
      "neg",
      "lect"
    ],
    [
      "wh",
      "it"
    ],
    [
      "servant",
      "s"
    ],
    [
      "am",
      "ents"
    ],
    [
      "avo",
      "ided"
    ],
    [
      "su",
      "llen"
    ],
    [
      "ar",
      "th"
    ],
    [
      "mis",
      "chance"
    ],
    [
      "bea",
      "uteous"
    ],
    [
      "ir",
      "ing"
    ],
    [
      "be",
      "lie"
    ],
    [
      "chang",
      "ing"
    ],
    [
      "fra",
      "il"
    ],
    [
      "pro",
      "clam"
    ],
    [
      "trust",
      "y"
    ],
    [
      "ke",
      "st"
    ],
    [
      "shadow",
      "s"
    ],
    [
      "re",
      "ar"
    ],
    [
      "S",
      "ound"
    ],
    [
      "frown",
      "s"
    ],
    [
      "appe",
      "al"
    ],
    [
      "Th",
      "rough"
    ],
    [
      "bus",
      "h"
    ],
    [
      "tres",
      "pass"
    ],
    [
      "set",
      "tled"
    ],
    [
      "ax",
      "e"
    ],
    [
      "an",
      "ointed"
    ],
    [
      "furn",
      "ish"
    ],
    [
      "ti",
      "est"
    ],
    [
      "co",
      "at"
    ],
    [
      "se",
      "pul"
    ],
    [
      "sepul",
      "ch"
    ],
    [
      "Bus",
      "hy"
    ],
    [
      "man",
      "age"
    ],
    [
      "supp",
      "ly"
    ],
    [
      "em",
      "ent"
    ],
    [
      "f",
      "its"
    ],
    [
      "W",
      "IL"
    ],
    [
      "WIL",
      "LO"
    ],
    [
      "WILLO",
      "U"
    ],
    [
      "WILLOU",
      "GH"
    ],
    [
      "WILLOUGH",
      "BY"
    ],
    [
      "house",
      "hold"
    ],
    [
      "red",
      "ress"
    ],
    [
      "C",
      "ur"
    ],
    [
      "im",
      "ble"
    ],
    [
      "V",
      "en"
    ],
    [
      "grief",
      "s"
    ],
    [
      "w",
      "ink"
    ],
    [
      "woo",
      "ing"
    ],
    [
      "rest",
      "ra"
    ],
    [
      "ar",
      "row"
    ],
    [
      "happ",
      "ily"
    ],
    [
      "ill",
      "y"
    ],
    [
      "four",
      "teen"
    ],
    [
      "C",
      "ounty"
    ],
    [
      "love",
      "st"
    ],
    [
      "ga",
      "me"
    ],
    [
      "thir",
      "ty"
    ],
    [
      "La",
      "ur"
    ],
    [
      "g",
      "oose"
    ],
    [
      "modest",
      "y"
    ],
    [
      "re",
      "moved"
    ],
    [
      "dis",
      "gu"
    ],
    [
      "b",
      "ag"
    ],
    [
      "mon",
      "ument"
    ],
    [
      "w",
      "hor"
    ],
    [
      "the",
      "car"
    ],
    [
      "thecar",
      "y"
    ],
    [
      "con",
      "cer"
    ],
    [
      "i",
      "ble"
    ],
    [
      "s",
      "wain"
    ],
    [
      "satis",
      "fy"
    ],
    [
      "C",
      "LE"
    ],
    [
      "CLE",
      "O"
    ],
    [
      "CLEO",
      "MEN"
    ],
    [
      "CLEOMEN",
      "ES"
    ],
    [
      "Per",
      "dit"
    ],
    [
      "Perdit",
      "a"
    ],
    [
      "myster",
      "y"
    ],
    [
      "F",
      "RO"
    ],
    [
      "FRO",
      "TH"
    ],
    [
      "Marian",
      "a"
    ],
    [
      "A",
      "D"
    ],
    [
      "AD",
      "R"
    ],
    [
      "ADR",
      "IAN"
    ],
    [
      "pri",
      "ce"
    ],
    [
      "coun",
      "ted"
    ],
    [
      "fl",
      "u"
    ],
    [
      "affli",
      "ct"
    ],
    [
      "bre",
      "ad"
    ],
    [
      "th",
      "irst"
    ],
    [
      "suit",
      "ors"
    ],
    [
      "Stri",
      "ke"
    ],
    [
      "tr",
      "an"
    ],
    [
      "tran",
      "sport"
    ],
    [
      "cra",
      "m"
    ],
    [
      "gra",
      "in"
    ],
    [
      "i",
      "ct"
    ],
    [
      "st",
      "ale"
    ],
    [
      "mb",
      "ers"
    ],
    [
      "bo",
      "ard"
    ],
    [
      "p",
      "ate"
    ],
    [
      "li",
      "ed"
    ],
    [
      "coun",
      "sell"
    ],
    [
      "le",
      "g"
    ],
    [
      "best",
      "ow"
    ],
    [
      "offi",
      "ces"
    ],
    [
      "ha",
      "il"
    ],
    [
      "w",
      "s"
    ],
    [
      "H",
      "ang"
    ],
    [
      "min",
      "ute"
    ],
    [
      "li",
      "king"
    ],
    [
      "no",
      "bility"
    ],
    [
      "pi",
      "ck"
    ],
    [
      "l",
      "ance"
    ],
    [
      "do",
      "gs"
    ],
    [
      "ca",
      "ps"
    ],
    [
      "cho",
      "sen"
    ],
    [
      "g",
      "id"
    ],
    [
      "gid",
      "dy"
    ],
    [
      "cen",
      "sure"
    ],
    [
      "band",
      "s"
    ],
    [
      "rejo",
      "ice"
    ],
    [
      "pro",
      "ved"
    ],
    [
      "do",
      "zen"
    ],
    [
      "V",
      "al"
    ],
    [
      "it",
      "er"
    ],
    [
      "look",
      "ed"
    ],
    [
      "W",
      "ed"
    ],
    [
      "gre",
      "ed"
    ],
    [
      "s",
      "mo"
    ],
    [
      "swe",
      "at"
    ],
    [
      "her",
      "d"
    ],
    [
      "back",
      "s"
    ],
    [
      "he",
      "els"
    ],
    [
      "sen",
      "seless"
    ],
    [
      "ri",
      "ble"
    ],
    [
      "i",
      "ent"
    ],
    [
      "n",
      "umb"
    ],
    [
      "god",
      "d"
    ],
    [
      "godd",
      "ess"
    ],
    [
      "For",
      "tune"
    ],
    [
      "p",
      "age"
    ],
    [
      "offi",
      "c"
    ],
    [
      "offic",
      "ers"
    ],
    [
      "sir",
      "s"
    ],
    [
      "Whi",
      "les"
    ],
    [
      "sa",
      "cri"
    ],
    [
      "sacri",
      "fi"
    ],
    [
      "n",
      "up"
    ],
    [
      "warri",
      "ors"
    ],
    [
      "threaten",
      "ing"
    ],
    [
      "mind",
      "ed"
    ],
    [
      "incl",
      "ined"
    ],
    [
      "h",
      "are"
    ],
    [
      "fright",
      "ed"
    ],
    [
      "Had",
      "st"
    ],
    [
      "pra",
      "ises"
    ],
    [
      "it",
      "ude"
    ],
    [
      "cover",
      "t"
    ],
    [
      "clam",
      "our"
    ],
    [
      "f",
      "reed"
    ],
    [
      "bo",
      "ast"
    ],
    [
      "vere",
      "d"
    ],
    [
      "a",
      "bles"
    ],
    [
      "charac",
      "ter"
    ],
    [
      "bit",
      "ious"
    ],
    [
      "dis",
      "miss"
    ],
    [
      "earth",
      "ly"
    ],
    [
      "es",
      "sed"
    ],
    [
      "want",
      "ing"
    ],
    [
      "n",
      "ice"
    ],
    [
      "spo",
      "il"
    ],
    [
      "bur",
      "den"
    ],
    [
      "stat",
      "ue"
    ],
    [
      "li",
      "kes"
    ],
    [
      "cour",
      "teous"
    ],
    [
      "inj",
      "ury"
    ],
    [
      "ti",
      "e"
    ],
    [
      "mon",
      "ster"
    ],
    [
      "lim",
      "bs"
    ],
    [
      "b",
      "ate"
    ],
    [
      "mul",
      "tit"
    ],
    [
      "head",
      "ed"
    ],
    [
      "br",
      "own"
    ],
    [
      "tri",
      "cks"
    ],
    [
      "be",
      "havior"
    ],
    [
      "th",
      "re"
    ],
    [
      "child",
      "ish"
    ],
    [
      "gn",
      "ant"
    ],
    [
      "put",
      "ting"
    ],
    [
      "br",
      "u"
    ],
    [
      "is",
      "ing"
    ],
    [
      "confir",
      "m"
    ],
    [
      "C",
      "ast"
    ],
    [
      "P",
      "re"
    ],
    [
      "ha",
      "zard"
    ],
    [
      "Tri",
      "bunes"
    ],
    [
      "he",
      "at"
    ],
    [
      "sc",
      "atter"
    ],
    [
      "fear",
      "ing"
    ],
    [
      "s",
      "ought"
    ],
    [
      "mid",
      "night"
    ],
    [
      "ne",
      "l"
    ],
    [
      "G",
      "ree"
    ],
    [
      "re",
      "comp"
    ],
    [
      "recomp",
      "en"
    ],
    [
      "su",
      "lt"
    ],
    [
      "om",
      "it"
    ],
    [
      "b",
      "ere"
    ],
    [
      "in",
      "te"
    ],
    [
      "dep",
      "end"
    ],
    [
      "appre",
      "h"
    ],
    [
      "he",
      "ap"
    ],
    [
      "for",
      "ty"
    ],
    [
      "fall",
      "ing"
    ],
    [
      "th",
      "rown"
    ],
    [
      "is",
      "ted"
    ],
    [
      "pro",
      "cess"
    ],
    [
      "Do",
      "es"
    ],
    [
      "F",
      "al"
    ],
    [
      "compan",
      "ion"
    ],
    [
      "qui",
      "red"
    ],
    [
      "inher",
      "it"
    ],
    [
      "learn",
      "ed"
    ],
    [
      "m",
      "ould"
    ],
    [
      "ic",
      "al"
    ],
    [
      "co",
      "ll"
    ],
    [
      "church",
      "yard"
    ],
    [
      "s",
      "wer"
    ],
    [
      "tyran",
      "n"
    ],
    [
      "M",
      "aking"
    ],
    [
      "lo",
      "ad"
    ],
    [
      "il",
      "ence"
    ],
    [
      "kn",
      "it"
    ],
    [
      "vis",
      "ion"
    ],
    [
      "intellig",
      "ence"
    ],
    [
      "un",
      "ate"
    ],
    [
      "tend",
      "ing"
    ],
    [
      "med",
      "dle"
    ],
    [
      "necess",
      "ity"
    ],
    [
      "ta",
      "ck"
    ],
    [
      "W",
      "h"
    ],
    [
      "sple",
      "en"
    ],
    [
      "th",
      "umb"
    ],
    [
      "ter",
      "m"
    ],
    [
      "Where",
      "fore"
    ],
    [
      "dis",
      "course"
    ],
    [
      "bot",
      "tom"
    ],
    [
      "imag",
      "ine"
    ],
    [
      "ce",
      "l"
    ],
    [
      "common",
      "wealth"
    ],
    [
      "th",
      "inking"
    ],
    [
      "prevent",
      "ed"
    ],
    [
      "w",
      "are"
    ],
    [
      "i",
      "ety"
    ],
    [
      "where",
      "on"
    ],
    [
      "b",
      "ore"
    ],
    [
      "su",
      "ing"
    ],
    [
      "ca",
      "pable"
    ],
    [
      "us",
      "ing"
    ],
    [
      "Al",
      "though"
    ],
    [
      "e",
      "v"
    ],
    [
      "ak",
      "en"
    ],
    [
      "s",
      "hot"
    ],
    [
      "act",
      "s"
    ],
    [
      "tell",
      "ing"
    ],
    [
      "conj",
      "ure"
    ],
    [
      "W",
      "ife"
    ],
    [
      "su",
      "its"
    ],
    [
      "Ano",
      "ther"
    ],
    [
      "to",
      "morrow"
    ],
    [
      "tr",
      "unk"
    ],
    [
      "st",
      "ick"
    ],
    [
      "Where",
      "to"
    ],
    [
      "soon",
      "er"
    ],
    [
      "there",
      "by"
    ],
    [
      "w",
      "al"
    ],
    [
      "m",
      "il"
    ],
    [
      "l",
      "ur"
    ],
    [
      "writ",
      "ten"
    ],
    [
      "breath",
      "ing"
    ],
    [
      "dr",
      "un"
    ],
    [
      "drun",
      "ken"
    ],
    [
      "to",
      "y"
    ],
    [
      "Sh",
      "ore"
    ],
    [
      "li",
      "very"
    ],
    [
      "shr",
      "oud"
    ],
    [
      "fig",
      "ure"
    ],
    [
      "vo",
      "cate"
    ],
    [
      "An",
      "ne"
    ],
    [
      "se",
      "y"
    ],
    [
      "ber",
      "t"
    ],
    [
      "light",
      "ning"
    ],
    [
      "Q",
      "ue"
    ],
    [
      "Que",
      "en"
    ],
    [
      "some",
      "what"
    ],
    [
      "m",
      "ish"
    ],
    [
      "sh",
      "ook"
    ],
    [
      "Ber",
      "ke"
    ],
    [
      "Berke",
      "ley"
    ],
    [
      "month",
      "s"
    ],
    [
      "pri",
      "me"
    ],
    [
      "y",
      "on"
    ],
    [
      "O",
      "h"
    ],
    [
      "war",
      "n"
    ],
    [
      "care",
      "ful"
    ],
    [
      "liber",
      "al"
    ],
    [
      "Jes",
      "u"
    ],
    [
      "pit",
      "iful"
    ],
    [
      "rebel",
      "s"
    ],
    [
      "pee",
      "vish"
    ],
    [
      "viol",
      "ence"
    ],
    [
      "l",
      "engthen"
    ],
    [
      "ch",
      "arm"
    ],
    [
      "wor",
      "m"
    ],
    [
      "fl",
      "ourish"
    ],
    [
      "V",
      "augh"
    ],
    [
      "Vaugh",
      "an"
    ],
    [
      "B",
      "ur"
    ],
    [
      "be",
      "fall"
    ],
    [
      "an",
      "ch"
    ],
    [
      "se",
      "cre"
    ],
    [
      "stri",
      "ve"
    ],
    [
      "execut",
      "e"
    ],
    [
      "to",
      "il"
    ],
    [
      "reput",
      "ation"
    ],
    [
      "but",
      "t"
    ],
    [
      "na",
      "ble"
    ],
    [
      "f",
      "il"
    ],
    [
      "cher",
      "ish"
    ],
    [
      "sa",
      "v"
    ],
    [
      "ze",
      "al"
    ],
    [
      "wing",
      "ed"
    ],
    [
      "ate",
      "ly"
    ],
    [
      "la",
      "p"
    ],
    [
      "shall",
      "ow"
    ],
    [
      "bless",
      "ing"
    ],
    [
      "tra",
      "in"
    ],
    [
      "W",
      "oe"
    ],
    [
      "ha",
      "ught"
    ],
    [
      "gre",
      "w"
    ],
    [
      "un",
      "fold"
    ],
    [
      "clo",
      "sed"
    ],
    [
      "good",
      "s"
    ],
    [
      "ive",
      "d"
    ],
    [
      "cor",
      "onation"
    ],
    [
      "weap",
      "on"
    ],
    [
      "up",
      "right"
    ],
    [
      "E",
      "ly"
    ],
    [
      "royal",
      "ty"
    ],
    [
      "shri",
      "ft"
    ],
    [
      "G",
      "u"
    ],
    [
      "ha",
      "ll"
    ],
    [
      "af",
      "fords"
    ],
    [
      "G",
      "a"
    ],
    [
      "l",
      "ower"
    ],
    [
      "ll",
      "ing"
    ],
    [
      "troop",
      "s"
    ],
    [
      "cons",
      "ort"
    ],
    [
      "bitter",
      "ly"
    ],
    [
      "am",
      "b"
    ],
    [
      "am",
      "iss"
    ],
    [
      "not",
      "ed"
    ],
    [
      "F",
      "ull"
    ],
    [
      "me",
      "tal"
    ],
    [
      "h",
      "oney"
    ],
    [
      "Pro",
      "ve"
    ],
    [
      "ruth",
      "less"
    ],
    [
      "ro",
      "ses"
    ],
    [
      "pit",
      "ied"
    ],
    [
      "burn",
      "s"
    ],
    [
      "sain",
      "ts"
    ],
    [
      "ca",
      "it"
    ],
    [
      "cait",
      "iff"
    ],
    [
      "tort",
      "ure"
    ],
    [
      "s",
      "kill"
    ],
    [
      "tor",
      "ney"
    ],
    [
      "et",
      "ch"
    ],
    [
      "W",
      "r"
    ],
    [
      "d",
      "ate"
    ],
    [
      "S",
      "end"
    ],
    [
      "beg",
      "et"
    ],
    [
      "step",
      "s"
    ],
    [
      "so",
      "il"
    ],
    [
      "O",
      "ld"
    ],
    [
      "p",
      "u"
    ],
    [
      "a",
      "fe"
    ],
    [
      "disper",
      "sed"
    ],
    [
      "proclam",
      "ation"
    ],
    [
      "S",
      "ur"
    ],
    [
      "Sur",
      "rey"
    ],
    [
      "F",
      "ind"
    ],
    [
      "subst",
      "ance"
    ],
    [
      "sh",
      "are"
    ],
    [
      "Cour",
      "age"
    ],
    [
      "im",
      "mortal"
    ],
    [
      "Just",
      "ice"
    ],
    [
      "desc",
      "end"
    ],
    [
      "per",
      "ni"
    ],
    [
      "perni",
      "cious"
    ],
    [
      "r",
      "ouse"
    ],
    [
      "sepulch",
      "re"
    ],
    [
      "bir",
      "ds"
    ],
    [
      "ici",
      "ans"
    ],
    [
      "Gre",
      "en"
    ],
    [
      "grand",
      "sire"
    ],
    [
      "m",
      "ong"
    ],
    [
      "rup",
      "t"
    ],
    [
      "success",
      "ion"
    ],
    [
      "W",
      "il"
    ],
    [
      "Wil",
      "ts"
    ],
    [
      "Wilts",
      "hire"
    ],
    [
      "ther",
      "n"
    ],
    [
      "dou",
      "b"
    ],
    [
      "Gra",
      "ce"
    ],
    [
      "p",
      "ised"
    ],
    [
      "cha",
      "llen"
    ],
    [
      "challen",
      "ge"
    ],
    [
      "possess",
      "ion"
    ],
    [
      "ra",
      "ven"
    ],
    [
      "yield",
      "s"
    ],
    [
      "th",
      "ie"
    ],
    [
      "join",
      "ts"
    ],
    [
      "p",
      "om"
    ],
    [
      "h",
      "rew"
    ],
    [
      "bor",
      "row"
    ],
    [
      "sp",
      "read"
    ]
  ]
}